<pad>	0
<unk>	0
>>en<<	0
>>hi<<	0
>>te<<	0
▁क	-0
▁t	-1
he	-2
▁a	-3
▁ह	-4
▁स	-5
in	-6
▁the	-7
▁o	-8
▁प	-9
re	-10
▁म	-11
▁s	-12
er	-13
nd	-14
्र	-15
▁w	-16
at	-17
on	-18
ार	-19
▁है	-20
is	-21
ें	-22
▁ज	-23
▁अ	-24
▁के	-25
en	-26
▁व	-27
या	-28
▁of	-29
▁न	-30
it	-31
▁c	-32
▁b	-33
or	-34
es	-35
▁ब	-36
▁f	-37
ed	-38
ou	-39
▁p	-40
▁उ	-41
▁त	-42
ों	-43
an	-44
▁द	-45
al	-46
▁ल	-47
ar	-48
▁in	-49
▁औ	-50
▁and	-51
ने	-52
▁और	-53
ing	-54
▁में	-55
▁to	-56
▁m	-57
▁र	-58
र्	-59
▁d	-60
ion	-61
ता	-62
▁h	-63
्य	-64
▁की	-65
▁कर	-66
ान	-67
▁कि	-68
▁(	-69
as	-70
ic	-71
▁आ	-72
▁प्र	-73
▁को	-74
le	-75
▁th	-76
िक	-77
om	-78
▁से	-79
ll	-80
ent	-81
्त	-82
▁भ	-83
▁n	-84
▁का	-85
▁A	-86
ना	-87
▁T	-88
▁इ	-89
▁be	-90
▁ग	-91
ve	-92
▁I	-93
ित	-94
▁e	-95
ct	-96
▁re	-97
▁is	-98
▁पर	-99
▁य	-100
▁S	-101
▁हो	-102
ाल	-103
▁l	-104
ro	-105
▁ए	-106
st	-107
▁y	-108
▁g	-109
ot	-110
ut	-111
ही	-112
▁च	-113
se	-114
्व	-115
id	-116
न्	-117
ते	-118
▁for	-119
▁लि	-120
▁श	-121
ation	-122
ur	-123
im	-124
ly	-125
▁वि	-126
▁wh	-127
ce	-128
▁हैं	-129
ay	-130
▁सं	-131
ad	-132
▁जा	-133
▁you	-134
▁इस	-135
ver	-136
▁उस	-137
▁u	-138
am	-139
के	-140
ला	-141
ow	-142
▁एक	-143
▁ख	-144
था	-145
ोग	-146
▁on	-147
▁C	-148
ड़	-149
्ष	-150
िय	-151
▁The	-152
स्	-153
et	-154
▁M	-155
▁P	-156
ति	-157
ir	-158
▁-	-159
▁लिए	-160
▁H	-161
▁that	-162
हा	-163
il	-164
ुम	-165
ig	-166
▁सम	-167
हीं	-168
▁1	-169
्या	-170
ती	-171
ch	-172
▁फ	-173
▁जो	-174
▁अप	-175
्ट	-176
▁उन	-177
▁तो	-178
▁he	-179
▁सा	-180
▁नहीं	-181
▁हम	-182
▁B	-183
▁it	-184
▁दे	-185
ment	-186
ol	-187
वा	-188
ith	-189
से	-190
▁as	-191
िया	-192
ra	-193
रा	-194
▁नि	-195
दा	-196
▁तुम	-197
▁an	-198
ill	-199
▁भी	-200
▁or	-201
od	-202
▁not	-203
▁W	-204
if	-205
▁st	-206
का	-207
▁ने	-208
त्र	-209
सी	-210
ter	-211
▁with	-212
ल्	-213
ul	-214
ess	-215
▁रा	-216
▁जि	-217
▁are	-218
▁ha	-219
▁pro	-220
ri	-221
ge	-222
▁de	-223
her	-224
▁we	-225
▁G	-226
▁D	-227
री	-228
▁बा	-229
▁या	-230
▁'	-231
गा	-232
कार	-233
नी	-234
ld	-235
ate	-236
▁con	-237
क्ष	-238
▁यह	-239
▁su	-240
ास	-241
▁se	-242
ज़	-243
▁R	-244
▁किया	-245
▁अन	-246
ab	-247
op	-248
rom	-249
▁ही	-250
ले	-251
सा	-252
ers	-253
▁2	-254
res	-255
ak	-256
th	-257
की	-258
▁com	-259
▁L	-260
nt	-261
▁थ	-262
ष्ट	-263
ेश	-264
ारा	-265
कर	-266
ist	-267
▁sh	-268
▁by	-269
▁मु	-270
▁करने	-271
▁N	-272
मा	-273
ंग	-274
▁लोग	-275
▁was	-276
▁अध	-277
pe	-278
त्	-279
ain	-280
▁have	-281
ht	-282
▁वह	-283
िर	-284
▁they	-285
ity	-286
▁from	-287
▁ex	-288
iv	-289
▁स्	-290
▁हु	-291
▁कु	-292
▁them	-293
est	-294
कि	-295
क्त	-296
all	-297
us	-298
▁will	-299
em	-300
▁O	-301
▁दि	-302
and	-303
▁k	-304
▁रह	-305
▁v	-306
▁who	-307
▁this	-308
▁F	-309
ियों	-310
▁कार	-311
▁E	-312
▁ड	-313
▁"	-314
ah	-315
ore	-316
ाम	-317
ारे	-318
ive	-319
ant	-320
▁सक	-321
ाह	-322
ac	-323
um	-324
न्ह	-325
ie	-326
ich	-327
▁उप	-328
qu	-329
▁था	-330
pp	-331
▁r	-332
▁अपने	-333
द्	-334
▁ले	-335
▁at	-336
ction	-337
▁has	-338
art	-339
ies	-340
▁वे	-341
▁Ind	-342
ारी	-343
os	-344
▁ऐ	-345
िल	-346
▁He	-347
ure	-348
मान	-349
रे	-350
▁आप	-351
स्त	-352
ould	-353
▁which	-354
▁ne	-355
un	-356
▁ध	-357
ैं	-358
ort	-359
▁do	-360
ia	-361
च्	-362
el	-363
ूप	-364
वि	-365
गे	-366
▁their	-367
▁सु	-368
▁All	-369
▁पू	-370
ight	-371
ard	-372
्री	-373
red	-374
भा	-375
ci	-376
our	-377
▁जिस	-378
ंत	-379
▁al	-380
00	-381
▁पह	-382
▁भार	-383
ord	-384
▁his	-385
ind	-386
▁उन्ह	-387
▁गया	-388
में	-389
ओं	-390
▁कुछ	-391
pt	-392
▁all	-393
ust	-394
ंध	-395
▁le	-396
▁ch	-397
▁वाल	-398
ous	-399
▁तथा	-400
▁छ	-401
ली	-402
ose	-403
दि	-404
te	-405
्ह	-406
▁whe	-407
ther	-408
▁मे	-409
▁किसी	-410
▁And	-411
▁In	-412
▁tr	-413
ीन	-414
▁दो	-415
▁ख़	-416
▁साथ	-417
ूल	-418
▁द्व	-419
ome	-420
ong	-421
▁स्व	-422
▁K	-423
▁तुम्ह	-424
▁अनु	-425
ud	-426
age	-427
ag	-428
▁Th	-429
▁जब	-430
खा	-431
को	-432
▁चाह	-433
▁घ	-434
▁We	-435
▁so	-436
ाप	-437
ुदा	-438
▁wor	-439
ame	-440
श्	-441
▁रूप	-442
म्	-443
▁कोई	-444
▁अधिक	-445
ोज	-446
ंद	-447
▁Allah	-448
ाय	-449
▁19	-450
देश	-451
▁निर्	-452
▁me	-453
ार्	-454
▁U	-455
ुर	-456
ंड	-457
▁your	-458
cc	-459
ans	-460
▁go	-461
भी	-462
..	-463
ated	-464
▁थे	-465
द्ध	-466
गी	-467
▁ट	-468
▁उनके	-469
ount	-470
ance	-471
▁तक	-472
▁ला	-473
▁sa	-474
▁pl	-475
▁ab	-476
▁विश	-477
▁द्वारा	-478
ect	-479
ढ़	-480
▁करते	-481
गर	-482
न्द	-483
▁पा	-484
▁dis	-485
▁मैं	-486
rou	-487
▁करें	-488
▁can	-489
▁व्य	-490
ुत	-491
▁बना	-492
▁लोगों	-493
▁बह	-494
▁भा	-495
ear	-496
ाना	-497
ast	-498
▁us	-499
▁राज	-500
ide	-501
av	-502
▁दिया	-503
▁परि	-504
र्व	-505
pl	-506
▁प्रति	-507
ost	-508
नों	-509
so	-510
▁there	-511
ok	-512
▁pe	-513
▁क्ष	-514
▁but	-515
ry	-516
▁im	-517
▁कह	-518
▁वर्	-519
able	-520
now	-521
ff	-522
क़	-523
▁any	-524
ये	-525
▁ये	-526
▁India	-527
योग	-528
▁मा	-529
त्त	-530
ंत्र	-531
▁जाए	-532
▁un	-533
▁फिर	-534
nder	-535
धार	-536
लाह	-537
▁en	-538
िए	-539
जी	-540
▁भारत	-541
▁man	-542
▁ad	-543
▁तर	-544
ाद	-545
▁j	-546
▁one	-547
▁up	-548
क्	-549
▁सि	-550
og	-551
ish	-552
per	-553
▁राष्ट	-554
ुन	-555
au	-556
out	-557
▁रहे	-558
▁कार्य	-559
रण	-560
ary	-561
▁कहा	-562
hi	-563
▁क्या	-564
▁him	-565
oc	-566
▁सब	-567
▁अल्	-568
▁comp	-569
्ञ	-570
चा	-571
क्र	-572
▁स्थ	-573
ult	-574
ople	-575
▁जाता	-576
▁अव	-577
ice	-578
▁been	-579
▁per	-580
one	-581
▁other	-582
▁J	-583
gh	-584
फ़	-585
▁इन	-586
बंध	-587
क्ति	-588
ik	-589
▁V	-590
▁उसके	-591
▁were	-592
▁रख	-593
▁थी	-594
▁करना	-595
ूर	-596
ical	-597
▁ज़	-598
▁It	-599
ap	-600
▁res	-601
ions	-602
ष्	-603
ru	-604
▁had	-605
ence	-606
ड़ा	-607
▁ई	-608
ानी	-609
▁अपनी	-610
नि	-611
▁मह	-612
ake	-613
▁अल्लाह	-614
▁cont	-615
्यों	-616
very	-617
▁when	-618
ब्	-619
▁people	-620
जा	-621
▁सर	-622
द्य	-623
are	-624
च्छ	-625
▁बात	-626
ire	-627
ine	-628
▁फ़	-629
iz	-630
ime	-631
▁3	-632
▁जी	-633
▁Y	-634
▁ख़ुदा	-635
▁those	-636
▁know	-637
न्न	-638
vel	-639
▁am	-640
▁ag	-641
ृत	-642
▁said	-643
र्ण	-644
मी	-645
ress	-646
स्थ	-647
▁हुए	-648
ations	-649
ib	-650
दी	-651
ign	-652
▁out	-653
ail	-654
▁what	-655
ue	-656
orm	-657
▁उन्हें	-658
▁सी	-659
पर	-660
▁करता	-661
01	-662
▁विक	-663
▁under	-664
▁inc	-665
▁होता	-666
▁सू	-667
ang	-668
▁shall	-669
ings	-670
▁रहा	-671
ade	-672
▁part	-673
्रे	-674
ase	-675
िन	-676
vers	-677
▁cl	-678
▁ind	-679
▁no	-680
चार	-681
ub	-682
वाल	-683
▁int	-684
▁our	-685
ens	-686
ace	-687
ड़े	-688
▁सकता	-689
▁if	-690
ोंने	-691
▁ओ	-692
▁देख	-693
ach	-694
ेत्र	-695
▁ar	-696
▁क़	-697
▁बहुत	-698
rit	-699
▁bel	-700
िका	-701
▁उसे	-702
▁“	-703
ally	-704
▁also	-705
ep	-706
▁co	-707
ath	-708
▁its	-709
▁जान	-710
▁ev	-711
act	-712
मे	-713
टा	-714
▁हि	-715
ass	-716
▁God	-717
ूस	-718
▁बी	-719
ाप्त	-720
▁दी	-721
▁te	-722
र्थ	-723
▁मान	-724
ber	-725
▁गु	-726
▁/	-727
ian	-728
बर	-729
ile	-730
▁Ch	-731
वर्	-732
ाइ	-733
▁समय	-734
▁St	-735
▁comm	-736
▁जै	-737
▁क्षेत्र	-738
ren	-739
reat	-740
▁मि	-741
ड़ी	-742
ज्ञ	-743
▁may	-744
▁_	-745
ook	-746
पू	-747
▁राष्ट्र	-748
दान	-749
हर	-750
ise	-751
▁बाद	-752
▁पै	-753
lic	-754
ोल	-755
वन	-756
ike	-757
ial	-758
त्य	-759
ुल	-760
du	-761
ree	-762
▁तरह	-763
ack	-764
▁Lord	-765
र्म	-766
भि	-767
▁app	-768
▁imp	-769
ory	-770
▁This	-771
शन	-772
▁year	-773
fe	-774
vern	-775
टी	-776
कों	-777
ंच	-778
▁acc	-779
fore	-780
▁आय	-781
ition	-782
▁काम	-783
fter	-784
▁बे	-785
erv	-786
च्च	-787
ियम	-788
▁would	-789
▁bec	-790
झे	-791
ause	-792
▁पास	-793
वे	-794
▁sp	-795
▁सह	-796
▁हुआ	-797
▁वाले	-798
▁पहले	-799
old	-800
▁हू	-801
▁उन्होंने	-802
urn	-803
▁spe	-804
▁देश	-805
वी	-806
ove	-807
पति	-808
ident	-809
श्च	-810
▁only	-811
▁sub	-812
▁हमने	-813
▁time	-814
▁अंत	-815
ious	-816
ject	-817
form	-818
▁my	-819
ोक	-820
hed	-821
▁tw	-822
▁rel	-823
▁work	-824
▁होगा	-825
▁उत्	-826
▁such	-827
▁ना	-828
प्र	-829
▁Sh	-830
चना	-831
▁pre	-832
sel	-833
▁about	-834
स्था	-835
ेष	-836
▁then	-837
▁पु	-838
▁”	-839
▁जिन	-840
▁po	-841
▁qu	-842
ater	-843
▁बि	-844
▁over	-845
्रीय	-846
क्षा	-847
▁like	-848
ric	-849
▁उनकी	-850
▁सकते	-851
ौर	-852
▁prov	-853
▁यदि	-854
▁होने	-855
्रा	-856
▁So	-857
▁गए	-858
▁गई	-859
ild	-860
ted	-861
▁कम	-862
▁हमारे	-863
▁दिन	-864
rib	-865
▁तुम्हारे	-866
▁day	-867
▁छो	-868
▁Go	-869
▁more	-870
▁पी	-871
ities	-872
▁अन्य	-873
धान	-874
▁प्राप्त	-875
▁सरकार	-876
▁fo	-877
▁सभी	-878
we	-879
ational	-880
▁वर्ष	-881
▁ear	-882
ख़	-883
▁made	-884
▁ओर	-885
▁संबंध	-886
▁some	-887
▁विश्व	-888
न्त	-889
हां	-890
▁belie	-891
▁सम्	-892
ound	-893
▁rec	-894
▁चु	-895
िक्ष	-896
एँ	-897
▁ऐसे	-898
धि	-899
▁should	-900
▁than	-901
lect	-902
▁5	-903
▁बद	-904
▁As	-905
▁into	-906
▁But	-907
▁करो	-908
िप	-909
स्ता	-910
ward	-911
गत	-912
▁नाम	-913
करण	-914
ied	-915
wn	-916
ife	-917
टे	-918
▁say	-919
ंक	-920
▁4	-921
ces	-922
दार	-923
▁new	-924
तीय	-925
▁निक	-926
वं	-927
भाव	-928
▁साम	-929
▁fe	-930
▁sc	-931
श्य	-932
▁मिल	-933
▁प्रा	-934
▁झ	-935
▁राष्ट्रपति	-936
vernment	-937
ip	-938
▁bet	-939
ution	-940
▁चाहिए	-941
एं	-942
▁ता	-943
सर	-944
▁em	-945
▁प्रकार	-946
हाँ	-947
ite	-948
tern	-949
तर	-950
ert	-951
ीय	-952
▁count	-953
▁[	-954
▁Pro	-955
ful	-956
▁इसके	-957
▁बढ़	-958
ark	-959
▁off	-960
▁बु	-961
▁ऊ	-962
स्ट	-963
uth	-964
▁200	-965
way	-966
▁हर	-967
▁They	-968
▁rem	-969
▁मुझे	-970
ग्र	-971
िश	-972
्स	-973
▁&	-974
cial	-975
▁cons	-976
▁trans	-977
▁अच्छ	-978
▁Com	-979
वर	-980
aj	-981
▁ची	-982
...	-983
▁होती	-984
iss	-985
▁pr	-986
ons	-987
ual	-988
▁जाने	-989
▁उसकी	-990
▁these	-991
▁अगर	-992
ंप	-993
ness	-994
▁अब	-995
velop	-996
▁दूस	-997
▁two	-998
own	-999
जन	-1000
▁किए	-1001
शा	-1002
बा	-1003
end	-1004
ूम	-1005
▁नी	-1006
ank	-1007
ास्त	-1008
▁लग	-1009
दर्	-1010
ोजना	-1011
▁ठ	-1012
▁Wh	-1013
gr	-1014
),	-1015
▁ऐसा	-1016
cept	-1017
माण	-1018
ific	-1019
यी	-1020
▁act	-1021
▁समझ	-1022
पूर्ण	-1023
stit	-1024
रो	-1025
oy	-1026
hen	-1027
▁reg	-1028
लय	-1029
शी	-1030
▁good	-1031
▁हों	-1032
▁ro	-1033
बी	-1034
▁रस	-1035
▁भारतीय	-1036
किन	-1037
▁करे	-1038
▁ईमान	-1039
▁पहु	-1040
▁कारण	-1041
मत	-1042
ments	-1043
िम	-1044
िति	-1045
ved	-1046
्यू	-1047
▁after	-1048
ily	-1049
▁des	-1050
द्योग	-1051
ne	-1052
▁व्यक्ति	-1053
▁see	-1054
ेंगे	-1055
▁form	-1056
▁एवं	-1057
गार	-1058
ors	-1059
ink	-1060
ond	-1061
सार	-1062
▁राज्य	-1063
▁विकास	-1064
▁Se	-1065
पाद	-1066
ates	-1067
त्व	-1068
▁pers	-1069
▁before	-1070
ेल	-1071
▁क्यों	-1072
▁Un	-1073
ची	-1074
led	-1075
▁ent	-1076
▁हा	-1077
▁201	-1078
त्म	-1079
▁लेकिन	-1080
ph	-1081
▁Re	-1082
▁ob	-1083
टर	-1084
वल	-1085
▁मो	-1086
▁हुई	-1087
ाली	-1088
ave	-1089
▁right	-1090
ध्य	-1091
▁bl	-1092
वार	-1093
cess	-1094
▁again	-1095
ts	-1096
▁(_	-1097
ght	-1098
▁fir	-1099
▁लगा	-1100
▁स्त	-1101
llow	-1102
▁De	-1103
▁dec	-1104
द्र	-1105
ुक्त	-1106
िंग	-1107
▁her	-1108
ेज	-1109
▁रसूल	-1110
ाइल	-1111
cy	-1112
row	-1113
धा	-1114
▁rep	-1115
▁world	-1116
ob	-1117
▁life	-1118
ower	-1119
eng	-1120
िस	-1121
▁जन	-1122
▁बन	-1123
▁sy	-1124
्ल	-1125
▁दु	-1126
▁व्या	-1127
▁His	-1128
▁gu	-1129
▁पूर्व	-1130
▁ac	-1131
ज़ा	-1132
तन	-1133
eth	-1134
▁ra	-1135
rough	-1136
ष्ठ	-1137
▁मूल	-1138
▁call	-1139
यन	-1140
▁उसने	-1141
▁वा	-1142
▁दिखा	-1143
मु	-1144
▁pres	-1145
▁बारे	-1146
▁You	-1147
erm	-1148
▁where	-1149
पी	-1150
▁लिया	-1151
वाद	-1152
▁An	-1153
कृत	-1154
hip	-1155
▁way	-1156
▁every	-1157
ced	-1158
क्रम	-1159
ाला	-1160
▁अस	-1161
▁जाती	-1162
▁खा	-1163
ener	-1164
▁वै	-1165
aw	-1166
▁मौ	-1167
तः	-1168
▁giv	-1169
rent	-1170
▁चल	-1171
▁दोनों	-1172
ism	-1173
▁जीवन	-1174
▁fl	-1175
ोर	-1176
▁क्र	-1177
▁Con	-1178
arm	-1179
▁ass	-1180
▁being	-1181
pect	-1182
▁need	-1183
ange	-1184
▁Indian	-1185
▁through	-1186
▁अपना	-1187
other	-1188
▁‘	-1189
लों	-1190
▁उपयोग	-1191
▁होते	-1192
दे	-1193
▁रही	-1194
▁dif	-1195
▁तुम्हें	-1196
▁(1	-1197
चे	-1198
तों	-1199
▁set	-1200
▁Pr	-1201
amm	-1202
▁ऐसी	-1203
▁सद	-1204
ck	-1205
ning	-1206
▁develop	-1207
्ड	-1208
▁inv	-1209
▁cre	-1210
ple	-1211
▁great	-1212
▁जैसे	-1213
▁à	-1214
▁आव	-1215
▁विशेष	-1216
▁There	-1217
▁6	-1218
xt	-1219
▁कृ	-1220
▁ग्र	-1221
ves	-1222
▁make	-1223
).	-1224
ft	-1225
▁Pres	-1226
हाय	-1227
ating	-1228
ents	-1229
▁अभि	-1230
int	-1231
▁बार	-1232
▁ढ	-1233
▁हूँ	-1234
igh	-1235
▁If	-1236
▁बीच	-1237
▁बै	-1238
uring	-1239
olog	-1240
▁वास्त	-1241
▁खु	-1242
ull	-1243
▁कै	-1244
ever	-1245
धिक	-1246
▁down	-1247
▁प्रदान	-1248
ative	-1249
eed	-1250
▁thou	-1251
li	-1252
▁Is	-1253
ati	-1254
▁अल	-1255
▁वाला	-1256
▁मेरे	-1257
oth	-1258
▁रु	-1259
▁मन	-1260
▁sec	-1261
▁यु	-1262
ित्र	-1263
▁समा	-1264
व्य	-1265
▁does	-1266
▁मार्	-1267
कारी	-1268
।"	-1269
फल	-1270
▁भाग	-1271
तिक	-1272
▁मुख	-1273
ween	-1274
▁could	-1275
▁शिक्ष	-1276
▁att	-1277
▁country	-1278
▁br	-1279
▁serv	-1280
▁हमें	-1281
its	-1282
▁सो	-1283
▁did	-1284
▁उत्त	-1285
▁pol	-1286
तना	-1287
▁Bh	-1288
▁add	-1289
ided	-1290
ax	-1291
काश	-1292
▁produ	-1293
ages	-1294
▁आज	-1295
▁निय	-1296
पा	-1297
ेक	-1298
▁between	-1299
▁used	-1300
▁cent	-1301
▁ऑ	-1302
ular	-1303
▁first	-1304
ठा	-1305
▁उसका	-1306
▁श्री	-1307
िला	-1308
▁years	-1309
डी	-1310
▁follow	-1311
▁name	-1312
ble	-1313
ood	-1314
▁सहाय	-1315
ible	-1316
ublic	-1317
▁how	-1318
▁President	-1319
ख्या	-1320
▁Government	-1321
कृ	-1322
▁pos	-1323
▁exp	-1324
▁स्था	-1325
ंभ	-1326
▁आधार	-1327
stem	-1328
▁get	-1329
▁ke	-1330
▁well	-1331
▁very	-1332
▁most	-1333
षण	-1334
▁come	-1335
वेश	-1336
▁En	-1337
pen	-1338
ural	-1339
▁सेवा	-1340
कता	-1341
lp	-1342
ty	-1343
gan	-1344
als	-1345
▁many	-1346
▁चीज़	-1347
▁inte	-1348
▁person	-1349
▁7	-1350
ised	-1351
▁केवल	-1352
▁मै	-1353
▁देने	-1354
und	-1355
▁even	-1356
षा	-1357
▁न्या	-1358
▁back	-1359
▁eff	-1360
▁Min	-1361
▁col	-1362
▁8	-1363
▁For	-1364
हित	-1365
▁गा	-1366
ल्प	-1367
ving	-1368
▁प्रयोग	-1369
▁जाएगा	-1370
▁उनका	-1371
▁दृ	-1372
les	-1373
▁Act	-1374
▁Him	-1375
ून	-1376
any	-1377
pport	-1378
तु	-1379
ha	-1380
ार्थ	-1381
धन	-1382
▁सबसे	-1383
▁विचार	-1384
▁ret	-1385
▁इसे	-1386
ility	-1387
ज्ञान	-1388
con	-1389
▁sign	-1390
▁माल	-1391
ting	-1392
ited	-1393
▁upon	-1394
▁आवश्य	-1395
▁Ex	-1396
ग़	-1397
▁dist	-1398
ूद	-1399
ature	-1400
▁just	-1401
ather	-1402
▁जिसमें	-1403
▁unt	-1404
▁0	-1405
क्षण	-1406
▁रब	-1407
ियां	-1408
▁बो	-1409
▁num	-1410
िता	-1411
रों	-1412
ven	-1413
रिक	-1414
▁tra	-1415
uch	-1416
lud	-1417
▁own	-1418
र्य	-1419
▁वही	-1420
▁ed	-1421
▁earth	-1422
▁स्थान	-1423
▁ord	-1424
self	-1425
▁ref	-1426
▁सर्व	-1427
▁निश्च	-1428
▁स्प	-1429
▁ताकि	-1430
aking	-1431
▁Comm	-1432
iew	-1433
▁mess	-1434
▁वाली	-1435
▁हमारी	-1436
ister	-1437
ंस	-1438
▁help	-1439
णी	-1440
▁18	-1441
▁among	-1442
ars	-1443
uc	-1444
ुट	-1445
चित	-1446
▁pur	-1447
▁पैदा	-1448
▁take	-1449
▁against	-1450
▁दर	-1451
hes	-1452
▁because	-1453
▁बड़ा	-1454
ियाँ	-1455
▁रो	-1456
पित	-1457
▁she	-1458
न्तु	-1459
ूत	-1460
get	-1461
▁प्रत्य	-1462
▁तब	-1463
air	-1464
▁जाना	-1465
ुनिया	-1466
elie	-1467
▁उसी	-1468
लिए	-1469
▁जाते	-1470
▁hand	-1471
र्क	-1472
▁end	-1473
▁inst	-1474
यास	-1475
▁माम	-1476
र्ष	-1477
▁विष	-1478
त्ता	-1479
round	-1480
▁पार	-1481
irect	-1482
▁क्योंकि	-1483
chn	-1484
हार	-1485
ute	-1486
्यालय	-1487
▁want	-1488
▁कंप	-1489
▁निर्धार	-1490
▁देता	-1491
ures	-1492
ick	-1493
ission	-1494
▁bu	-1495
▁आस	-1496
▁use	-1497
िनियम	-1498
▁दा	-1499
▁डि	-1500
ेर	-1501
▁शुर	-1502
लब्	-1503
▁इसमें	-1504
▁अथ	-1505
ased	-1506
ision	-1507
▁mod	-1508
▁val	-1509
▁sent	-1510
▁writ	-1511
▁अधिकार	-1512
me	-1513
▁अधिनियम	-1514
▁शु	-1515
▁child	-1516
▁प्रश	-1517
▁ph	-1518
▁बस	-1519
▁धारा	-1520
formation	-1521
ब्द	-1522
ract	-1523
▁mem	-1524
▁जिसे	-1525
▁व्यव	-1526
▁char	-1527
▁राष्ट्रीय	-1528
▁system	-1529
भाग	-1530
▁आर	-1531
▁believe	-1532
▁Ne	-1533
▁gr	-1534
▁योजना	-1535
▁उत्पाद	-1536
read	-1537
▁उपलब्	-1538
▁Am	-1539
▁लिख	-1540
▁turn	-1541
▁Ad	-1542
▁mon	-1543
सं	-1544
▁ins	-1545
▁पं	-1546
not	-1547
▁import	-1548
▁diffe	-1549
▁hum	-1550
▁ap	-1551
201	-1552
▁mat	-1553
▁given	-1554
▁हे	-1555
rong	-1556
द्योगिक	-1557
भव	-1558
्यान	-1559
ूह	-1560
बे	-1561
वरण	-1562
▁दर्	-1563
ices	-1564
▁must	-1565
▁सामान	-1566
▁lit	-1567
ished	-1568
ताओं	-1569
ives	-1570
▁महत्व	-1571
ital	-1572
."	-1573
▁अथवा	-1574
िट	-1575
▁On	-1576
▁बल्	-1577
▁सकती	-1578
▁संदेश	-1579
मिक	-1580
▁शाम	-1581
▁requ	-1582
▁To	-1583
▁State	-1584
ock	-1585
▁cert	-1586
▁उससे	-1587
वान	-1588
▁place	-1589
tle	-1590
▁पुर	-1591
up	-1592
▁wom	-1593
क्रिया	-1594
श्व	-1595
▁long	-1596
▁फ़ाइल	-1597
▁pass	-1598
▁स्ट	-1599
alth	-1600
▁10	-1601
▁करती	-1602
▁उनसे	-1603
▁तै	-1604
▁परवर	-1605
▁विषय	-1606
iness	-1607
▁सूचना	-1608
▁When	-1609
pend	-1610
▁now	-1611
ctions	-1612
ंज	-1613
काल	-1614
▁ज्ञ	-1615
arch	-1616
त्रा	-1617
▁मार्ग	-1618
दिगार	-1619
▁ye	-1620
rest	-1621
▁give	-1622
belie	-1623
ash	-1624
▁मद	-1625
ii	-1626
ouse	-1627
▁इसलिए	-1628
ोट	-1629
▁पहुँ	-1630
ror	-1631
▁परवरदिगार	-1632
▁car	-1633
▁डाल	-1634
▁sm	-1635
ari	-1636
त्या	-1637
▁power	-1638
ides	-1639
▁दौर	-1640
▁मेरी	-1641
ुक	-1642
▁9	-1643
▁दूसरे	-1644
ten	-1645
धी	-1646
▁:	-1647
▁बैं	-1648
▁शिक्षा	-1649
ries	-1650
ix	-1651
ivers	-1652
▁equ	-1653
▁बता	-1654
▁कभी	-1655
▁account	-1656
ुष	-1657
▁संप	-1658
ene	-1659
▁लो	-1660
▁जर	-1661
arn	-1662
▁व्याप	-1663
डर	-1664
pos	-1665
▁conf	-1666
यार	-1667
▁min	-1668
▁cap	-1669
▁मंत्र	-1670
▁प्रभाव	-1671
▁होना	-1672
▁Al	-1673
▁स्थिति	-1674
▁cle	-1675
▁लिये	-1676
▁जिन्ह	-1677
▁av	-1678
▁अर्	-1679
ट्ट	-1680
▁gener	-1681
▁उपलब्ध	-1682
▁कई	-1683
▁हूं	-1684
▁वृ	-1685
▁मू	-1686
▁डा	-1687
भिन्न	-1688
▁let	-1689
ral	-1690
ants	-1691
▁inter	-1692
▁cond	-1693
▁योग	-1694
▁कें	-1695
ata	-1696
▁लोक	-1697
लि	-1698
इन	-1699
▁gl	-1700
▁छोड़	-1701
ंति	-1702
▁water	-1703
▁बड़ी	-1704
▁पता	-1705
▁यहाँ	-1706
▁जु	-1707
000	-1708
▁here	-1709
▁संग	-1710
▁बच्च	-1711
▁हाथ	-1712
▁पुन	-1713
▁sure	-1714
▁स्वा	-1715
ified	-1716
ork	-1717
▁includ	-1718
ES	-1719
▁सहायता	-1720
ंश	-1721
क्ट	-1722
ेद	-1723
युक्त	-1724
▁अर्थ	-1725
▁Day	-1726
selves	-1727
▁found	-1728
▁No	-1729
day	-1730
▁disc	-1731
▁महा	-1732
▁away	-1733
नेवाल	-1734
▁prom	-1735
▁होगी	-1736
ेट	-1737
ug	-1738
of	-1739
ोप	-1740
▁inf	-1741
तान	-1742
ष्टि	-1743
ताब	-1744
ale	-1745
▁वित	-1746
ared	-1747
▁आया	-1748
▁सके	-1749
roup	-1750
▁%	-1751
ional	-1752
ody	-1753
ंट	-1754
▁उनमें	-1755
वाह	-1756
▁उद्	-1757
कृति	-1758
uthor	-1759
ined	-1760
▁प्रण	-1761
ेम	-1762
ety	-1763
▁इससे	-1764
▁nor	-1765
▁शामिल	-1766
ict	-1767
▁कहते	-1768
▁आगे	-1769
यं	-1770
▁number	-1771
conom	-1772
▁men	-1773
न्द्र	-1774
▁वस्त	-1775
▁lar	-1776
▁same	-1777
र्ट	-1778
▁fam	-1779
oun	-1780
ists	-1781
▁अंतर	-1782
एस	-1783
त्मक	-1784
▁Hind	-1785
ूट	-1786
▁बल्कि	-1787
▁fin	-1788
▁विभिन्न	-1789
▁आपको	-1790
ern	-1791
▁lead	-1792
▁किस	-1793
ys	-1794
▁fore	-1795
▁सुर	-1796
ana	-1797
▁उच्च	-1798
▁करके	-1799
▁state	-1800
▁lo	-1801
▁दौरान	-1802
imes	-1803
▁अति	-1804
▁अधीन	-1805
angu	-1806
▁ब्र	-1807
ोह	-1808
तम	-1809
▁ask	-1810
ology	-1811
ters	-1812
हत	-1813
▁दूर	-1814
▁Our	-1815
स्थान	-1816
less	-1817
▁भाषा	-1818
▁15	-1819
्ला	-1820
▁conc	-1821
▁पि	-1822
tc	-1823
ron	-1824
▁Q	-1825
▁१	-1826
▁things	-1827
▁सदस	-1828
▁वास्तव	-1829
▁during	-1830
कट	-1831
▁heav	-1832
▁इसका	-1833
▁यही	-1834
▁बैठ	-1835
the	-1836
▁start	-1837
रूप	-1838
▁while	-1839
▁अनुस	-1840
▁each	-1841
ण्ड	-1842
▁heart	-1843
ruct	-1844
▁cur	-1845
▁det	-1846
स्व	-1847
फी	-1848
▁होंगे	-1849
▁जहां	-1850
▁याद	-1851
▁पड़	-1852
▁इसी	-1853
▁अनुसार	-1854
▁stud	-1855
ैन	-1856
▁main	-1857
मुख	-1858
▁Cent	-1859
ered	-1860
▁अग	-1861
सल	-1862
िये	-1863
▁199	-1864
्यादा	-1865
▁अवसर	-1866
▁अंग	-1867
ledge	-1868
▁spec	-1869
द्धि	-1870
▁अभ	-1871
ोजन	-1872
iod	-1873
ेह	-1874
▁भूम	-1875
▁तरफ	-1876
▁section	-1877
▁कर्म	-1878
▁def	-1879
▁rece	-1880
▁बदल	-1881
▁called	-1882
ired	-1883
▁art	-1884
र्इ	-1885
▁land	-1886
▁उनको	-1887
▁मुख्य	-1888
▁शी	-1889
▁present	-1890
▁case	-1891
▁20	-1892
▁look	-1893
▁परिवर्	-1894
ियो	-1895
ality	-1896
ins	-1897
▁हाल	-1898
▁whom	-1899
▁अलग	-1900
जे	-1901
▁occ	-1902
▁आई	-1903
▁ग़	-1904
▁tak	-1905
ासन	-1906
▁development	-1907
▁सामने	-1908
▁सूची	-1909
दन	-1910
▁process	-1911
▁another	-1912
▁cor	-1913
▁cour	-1914
▁देते	-1915
ics	-1916
ग्रह	-1917
▁book	-1918
har	-1919
यर	-1920
शि	-1921
▁est	-1922
▁pay	-1923
▁resp	-1924
ption	-1925
▁चि	-1926
▁12	-1927
▁sur	-1928
▁जिसके	-1929
▁घर	-1930
▁different	-1931
▁organ	-1932
▁word	-1933
▁चाहते	-1934
▁लाभ	-1935
मीन	-1936
su	-1937
▁ser	-1938
▁उठा	-1939
▁सामान्य	-1940
ूँ	-1941
ell	-1942
▁find	-1943
▁adv	-1944
▁पूरा	-1945
▁स्वी	-1946
:%	-1947
▁मैंने	-1948
▁बाहर	-1949
▁प्रक्रिया	-1950
▁think	-1951
ya	-1952
▁both	-1953
ize	-1954
▁order	-1955
▁comple	-1956
▁स्पष्ट	-1957
▁शै	-1958
ains	-1959
लो	-1960
▁open	-1961
▁dem	-1962
कर्	-1963
▁loc	-1964
▁अनुम	-1965
ित्व	-1966
▁तैयार	-1967
amp	-1968
▁चुन	-1969
▁–	-1970
▁शा	-1971
और	-1972
▁पूर्ण	-1973
ीक	-1974
▁संख्या	-1975
▁जल	-1976
▁play	-1977
▁etc	-1978
▁Sc	-1979
▁पद	-1980
▁bus	-1981
▁law	-1982
▁करेगा	-1983
▁three	-1984
▁educ	-1985
▁list	-1986
lim	-1987
▁Then	-1988
EN	-1989
man	-1990
सम	-1991
▁उसमें	-1992
▁truth	-1993
wards	-1994
▁fac	-1995
▁commun	-1996
▁निर्माण	-1997
▁लगे	-1998
जार	-1999
▁संस्	-2000
▁उत्तर	-2001
▁mark	-2002
▁prev	-2003
port	-2004
▁Ar	-2005
▁beh	-2006
▁Res	-2007
▁aff	-2008
▁public	-2009
त्ति	-2010
▁return	-2011
▁Do	-2012
▁show	-2013
▁संबंधित	-2014
ंतु	-2015
प्त	-2016
▁fact	-2017
▁अच्छा	-2018
यों	-2019
▁ऋ	-2020
▁कौ	-2021
▁शुरू	-2022
▁term	-2023
तंत्र	-2024
▁बढ़ा	-2025
bers	-2026
▁जाएँ	-2027
▁partic	-2028
▁came	-2029
lish	-2030
▁dev	-2031
▁much	-2032
▁best	-2033
टना	-2034
▁(2	-2035
▁बनाने	-2036
▁आपके	-2037
▁सुन	-2038
▁indust	-2039
▁तीन	-2040
संद	-2041
▁11	-2042
▁भेज	-2043
ained	-2044
▁techn	-2045
हरा	-2046
सि	-2047
▁period	-2048
▁file	-2049
▁without	-2050
ually	-2051
▁भर	-2052
erg	-2053
ov	-2054
▁शब्द	-2055
▁कान	-2056
▁पृ	-2057
▁पढ़	-2058
▁sl	-2059
▁प्रत्येक	-2060
▁econom	-2061
ज्य	-2062
▁आद	-2063
rop	-2064
▁दुनिया	-2065
▁certain	-2066
▁प्रौ	-2067
▁indeed	-2068
▁पूरी	-2069
हास	-2070
▁bro	-2071
ines	-2072
ात	-2073
▁fil	-2074
▁Par	-2075
▁रंग	-2076
▁wind	-2077
▁बड़े	-2078
▁पत्र	-2079
▁Mu	-2080
▁Mus	-2081
▁नई	-2082
ee	-2083
र्या	-2084
वास	-2085
▁read	-2086
▁poss	-2087
▁अध्य	-2088
▁जग	-2089
छे	-2090
लेख	-2091
▁Tr	-2092
▁शि	-2093
▁fear	-2094
इट	-2095
▁त्र	-2096
ived	-2097
stand	-2098
▁sou	-2099
ैर	-2100
▁ext	-2101
▁means	-2102
here	-2103
▁knowledge	-2104
▁Mess	-2105
▁ty	-2106
▁संर	-2107
▁interest	-2108
ध्यम	-2109
▁grow	-2110
▁National	-2111
▁किताब	-2112
ention	-2113
▁fa	-2114
▁high	-2115
▁शक्ति	-2116
▁मौज	-2117
▁प्रकाश	-2118
▁गुण	-2119
दर्श	-2120
ough	-2121
▁पुस्त	-2122
ालन	-2123
▁som	-2124
▁स्वयं	-2125
▁जारी	-2126
▁अने	-2127
▁relig	-2128
ॉल	-2129
▁information	-2130
▁नियम	-2131
आई	-2132
्न	-2133
▁फै	-2134
▁support	-2135
▁कार्यक्रम	-2136
▁मदद	-2137
▁gra	-2138
ince	-2139
▁प्रार	-2140
lease	-2141
stitution	-2142
▁{	-2143
ner	-2144
▁progr	-2145
ai	-2146
mit	-2147
ship	-2148
▁रे	-2149
▁happ	-2150
▁Te	-2151
riend	-2152
▁langu	-2153
गम	-2154
ोल्	-2155
▁That	-2156
▁पानी	-2157
▁अत्य	-2158
शत	-2159
▁vis	-2160
▁चार	-2161
बार	-2162
▁stand	-2163
ament	-2164
aid	-2165
▁OF	-2166
▁med	-2167
▁human	-2168
▁avail	-2169
ither	-2170
▁तुम्हारी	-2171
▁आदि	-2172
pr	-2173
▁ऊपर	-2174
▁प्रयास	-2175
हम	-2176
▁author	-2177
ploy	-2178
iving	-2179
▁चाहता	-2180
धे	-2181
▁What	-2182
▁except	-2183
ield	-2184
▁प्रौद्योगिक	-2185
द्यालय	-2186
▁tem	-2187
मंत्र	-2188
▁मी	-2189
ination	-2190
ized	-2191
▁रखा	-2192
esh	-2193
म्प	-2194
▁Mah	-2195
▁women	-2196
▁गयी	-2197
▁गये	-2198
▁मत	-2199
ूं	-2200
▁ते	-2201
▁चला	-2202
▁Shri	-2203
▁ली	-2204
▁ज़र	-2205
ient	-2206
▁संस्था	-2207
▁incre	-2208
ool	-2209
▁government	-2210
▁महत्वपूर्ण	-2211
▁respect	-2212
ूरी	-2213
टक	-2214
▁contin	-2215
णाम	-2216
ंब	-2217
टन	-2218
▁सौ	-2219
▁pun	-2220
ालय	-2221
▁कल	-2222
ms	-2223
▁direct	-2224
▁वस्तु	-2225
दाय	-2226
ोन	-2227
▁full	-2228
▁बनाया	-2229
ros	-2230
क्षित	-2231
ियोजना	-2232
ccess	-2233
हन	-2234
▁बेह	-2235
crib	-2236
▁स्क	-2237
▁ज्ञान	-2238
▁ज्यादा	-2239
▁निर्धारित	-2240
▁वी	-2241
rence	-2242
thing	-2243
?"	-2244
▁निश्चय	-2245
▁sk	-2246
▁'%	-2247
▁sim	-2248
ंजी	-2249
▁group	-2250
स्थित	-2251
ज़ाब	-2252
▁साल	-2253
पत्र	-2254
▁गिर	-2255
▁हेतु	-2256
▁गति	-2257
ks	-2258
रती	-2259
▁परियोजना	-2260
▁ध्यान	-2261
▁going	-2262
gg	-2263
भार	-2264
.201	-2265
▁ठीक	-2266
▁अनेक	-2267
▁#	-2268
▁देखा	-2269
▁संघ	-2270
▁खुदा	-2271
oh	-2272
▁disbelie	-2273
▁exam	-2274
अप	-2275
ret	-2276
▁तू	-2277
▁धर्म	-2278
▁स्तर	-2279
▁che	-2280
▁small	-2281
▁My	-2282
AR	-2283
ware	-2284
ify	-2285
▁Or	-2286
▁last	-2287
▁करा	-2288
ेशक	-2289
शील	-2290
cl	-2291
▁important	-2292
ffic	-2293
▁गो	-2294
▁Minister	-2295
▁meet	-2296
▁सिवा	-2297
र्ड	-2298
बन्	-2299
olution	-2300
▁प्रधान	-2301
▁At	-2302
पि	-2303
▁oper	-2304
▁करेंगे	-2305
▁रुप	-2306
▁var	-2307
▁project	-2308
बाद	-2309
पन	-2310
▁prof	-2311
▁न्याया	-2312
▁Say	-2313
▁प्रतिशत	-2314
▁आए	-2315
▁How	-2316
▁clear	-2317
▁उद्योग	-2318
error	-2319
्रो	-2320
▁बैंक	-2321
ried	-2322
▁डर	-2323
▁created	-2324
▁जोड़	-2325
स्या	-2326
ER	-2327
्म	-2328
▁effect	-2329
▁बिना	-2330
▁become	-2331
▁परिणाम	-2332
▁Man	-2333
ense	-2334
▁प्रो	-2335
eds	-2336
▁नीचे	-2337
▁यहां	-2338
▁जिसने	-2339
▁करनेवाल	-2340
▁वित्त	-2341
▁unto	-2342
▁cannot	-2343
ways	-2344
▁बन्द	-2345
▁today	-2346
षि	-2347
▁अन्त	-2348
▁देना	-2349
▁never	-2350
नीय	-2351
ec	-2352
▁श्रे	-2353
ND	-2354
mb	-2355
▁तुम्हारा	-2356
▁समूह	-2357
▁cult	-2358
र्थिक	-2359
▁rest	-2360
▁डे	-2361
▁समाज	-2362
▁bring	-2363
रु	-2364
▁might	-2365
▁पो	-2366
ething	-2367
मित	-2368
▁ver	-2369
ency	-2370
तिहास	-2371
ctor	-2372
▁हिस्	-2373
▁Le	-2374
▁appe	-2375
▁ca	-2376
rap	-2377
▁New	-2378
▁विदेश	-2379
▁संस्थान	-2380
▁proper	-2381
ल्क	-2382
स्प	-2383
▁business	-2384
▁शरी	-2385
ज़ी	-2386
▁मगर	-2387
▁प्रमाण	-2388
inal	-2389
enef	-2390
▁व्यक्त	-2391
▁भवन	-2392
लन	-2393
▁div	-2394
▁आवश्यकता	-2395
▁सफल	-2396
▁message	-2397
क्स	-2398
भग	-2399
lected	-2400
▁बेशक	-2401
AT	-2402
जिक	-2403
▁पीछे	-2404
▁children	-2405
▁प्रबंध	-2406
ember	-2407
▁जिसका	-2408
▁company	-2409
▁These	-2410
▁मेरा	-2411
older	-2412
▁लेकर	-2413
निर्	-2414
द्व	-2415
stitut	-2416
▁put	-2417
▁।	-2418
▁प्रौद्योगिकी	-2419
lf	-2420
▁जमा	-2421
दिष्ट	-2422
▁wrong	-2423
az	-2424
tend	-2425
▁प्रमुख	-2426
▁अंतर्	-2427
▁क्षेत्रों	-2428
▁sch	-2429
▁amount	-2430
▁head	-2431
▁विश्वास	-2432
asht	-2433
▁taken	-2434
वादी	-2435
▁Book	-2436
▁अमे	-2437
ases	-2438
▁माध्यम	-2439
ider	-2440
▁known	-2441
▁month	-2442
fer	-2443
▁पिछ	-2444
por	-2445
▁बर	-2446
⁄4	-2447
erc	-2448
▁ide	-2449
▁pri	-2450
▁proble	-2451
▁(1)	-2452
ोल्डर	-2453
इस	-2454
▁जबकि	-2455
ining	-2456
ामी	-2457
▁पाठ	-2458
▁सार	-2459
गू	-2460
र्फ	-2461
▁better	-2462
gress	-2463
44	-2464
विधा	-2465
▁सीमा	-2466
▁झु	-2467
▁नीति	-2468
▁surely	-2469
den	-2470
RB	-2471
ID	-2472
▁अभी	-2473
▁लड़	-2474
▁real	-2475
ls	-2476
▁प्रय	-2477
▁किन्तु	-2478
▁income	-2479
▁समान	-2480
▁old	-2481
bs	-2482
▁estab	-2483
ोध	-2484
▁समर्थ	-2485
alk	-2486
▁ज़मीन	-2487
▁ती	-2488
▁Pl	-2489
▁days	-2490
ल्म	-2491
▁समस्या	-2492
▁four	-2493
▁कठ	-2494
▁punish	-2495
▁मज	-2496
work	-2497
▁fun	-2498
ंचा	-2499
दारी	-2500
▁ele	-2501
ote	-2502
▁आर्थिक	-2503
▁friend	-2504
▁जगह	-2505
▁तरी	-2506
▁अम	-2507
▁कला	-2508
▁कंपनी	-2509
min	-2510
icy	-2511
म्बर	-2512
▁दिए	-2513
▁धरती	-2514
ably	-2515
▁केंद्र	-2516
ration	-2517
▁धन	-2518
श्चा	-2519
▁within	-2520
ियन	-2521
▁mind	-2522
▁जैसा	-2523
▁लौ	-2524
ख्त	-2525
▁विस्त	-2526
▁भाव	-2527
विद्यालय	-2528
▁कॉ	-2529
▁times	-2530
▁कोश	-2531
धारा	-2532
स्क	-2533
तियों	-2534
▁sit	-2535
▁इसकी	-2536
▁done	-2537
▁सारे	-2538
▁होकर	-2539
▁view	-2540
▁Z	-2541
▁जानकारी	-2542
▁dest	-2543
soci	-2544
▁Me	-2545
▁लगभग	-2546
orts	-2547
▁various	-2548
ल्ली	-2549
reed	-2550
▁चाहे	-2551
वृ	-2552
▁activ	-2553
▁अतः	-2554
▁bank	-2555
▁मूल्य	-2556
▁themselves	-2557
्यता	-2558
मता	-2559
▁खंड	-2560
▁Ram	-2561
▁move	-2562
▁mar	-2563
▁applic	-2564
▁accept	-2565
▁बरा	-2566
to	-2567
▁रोग	-2568
ically	-2569
▁छा	-2570
▁वाय	-2571
▁allow	-2572
▁उद्देश	-2573
▁exper	-2574
lam	-2575
▁forg	-2576
▁body	-2577
▁left	-2578
▁बदला	-2579
▁पर्या	-2580
▁196	-2581
▁कृषि	-2582
▁bas	-2583
▁appro	-2584
▁भे	-2585
▁काफी	-2586
ode	-2587
▁विंड	-2588
▁Muslim	-2589
▁सुधार	-2590
▁success	-2591
▁too	-2592
▁kind	-2593
▁आने	-2594
▁large	-2595
▁मिला	-2596
▁रखते	-2597
▁PR	-2598
▁खोल	-2599
ंह	-2600
णा	-2601
▁आदेश	-2602
put	-2603
▁den	-2604
▁रोक	-2605
▁श्र	-2606
▁लेख	-2607
▁खोज	-2608
उस	-2609
▁keep	-2610
▁मानव	-2611
▁faith	-2612
▁अज़ाब	-2613
ternal	-2614
▁build	-2615
▁window	-2616
▁level	-2617
ateg	-2618
cient	-2619
▁soci	-2620
▁others	-2621
▁social	-2622
▁Ab	-2623
माजिक	-2624
▁evil	-2625
▁transl	-2626
▁16	-2627
▁जनता	-2628
rought	-2629
गें	-2630
ey	-2631
▁अच्छे	-2632
ानों	-2633
विध	-2634
▁वहां	-2635
▁par	-2636
▁विद्य	-2637
▁इनकार	-2638
ेशन	-2639
▁स्वीकार	-2640
▁25	-2641
ON	-2642
▁education	-2643
rol	-2644
▁Eng	-2645
▁चौ	-2646
-1	-2647
▁जानते	-2648
▁तुमसे	-2649
▁उल्	-2650
▁अच्छी	-2651
▁something	-2652
ues	-2653
▁निकाल	-2654
▁नियंत्र	-2655
▁गण	-2656
▁निम्	-2657
ery	-2658
र्च	-2659
डियो	-2660
eric	-2661
med	-2662
ठन	-2663
▁address	-2664
▁bo	-2665
▁Raj	-2666
▁employ	-2667
▁जानता	-2668
▁विज्ञान	-2669
▁परिवर्तन	-2670
▁सहयोग	-2671
बद्ध	-2672
चान	-2673
▁quest	-2674
▁chang	-2675
▁लागू	-2676
▁अवधि	-2677
lished	-2678
ulation	-2679
ंख	-2680
▁पूछ	-2681
ization	-2682
▁सामाजिक	-2683
▁प्रस्त	-2684
oin	-2685
▁light	-2686
▁leg	-2687
avan	-2688
▁पक्ष	-2689
▁हिन्द	-2690
iron	-2691
ृत्य	-2692
▁लक्ष	-2693
▁less	-2694
तें	-2695
alf	-2696
प्	-2697
▁इं	-2698
):	-2699
▁गुना	-2700
ator	-2701
▁polit	-2702
▁सुविधा	-2703
▁मध्य	-2704
▁health	-2705
▁दिल	-2706
र्ति	-2707
AN	-2708
▁निश	-2709
par	-2710
▁pop	-2711
▁प्रणाली	-2712
▁Gu	-2713
▁मंद	-2714
▁understand	-2715
▁वो	-2716
ूब	-2717
हरी	-2718
▁निकल	-2719
▁वक्त	-2720
ram	-2721
ran	-2722
▁आम	-2723
तनी	-2724
उन	-2725
डा	-2726
▁यू	-2727
▁नही	-2728
oint	-2729
▁दें	-2730
▁मामले	-2731
atic	-2732
▁free	-2733
ury	-2734
▁विश्वविद्यालय	-2735
cu	-2736
▁One	-2737
▁invest	-2738
▁व्यापार	-2739
▁195	-2740
▁विभाग	-2741
▁tre	-2742
▁198	-2743
लत	-2744
पाल	-2745
▁जीव	-2746
▁dra	-2747
आर	-2748
▁change	-2749
▁result	-2750
▁टी	-2751
▁दक्ष	-2752
हरण	-2753
▁ऋण	-2754
▁benef	-2755
▁war	-2756
ंदर	-2757
दम	-2758
ज़र	-2759
oss	-2760
▁क्रिया	-2761
itions	-2762
▁समाप्त	-2763
land	-2764
▁पश्चा	-2765
ng	-2766
▁क़ौ	-2767
▁महिला	-2768
▁पहुंच	-2769
ged	-2770
▁mo	-2771
ason	-2772
▁towards	-2773
ird	-2774
▁स्थापित	-2775
▁जिससे	-2776
▁hist	-2777
▁जाएगी	-2778
▁कुल	-2779
पुर	-2780
मार	-2781
▁1.	-2782
▁कहीं	-2783
▁सही	-2784
▁Who	-2785
▁पे	-2786
▁अतिरिक	-2787
▁Im	-2788
▁फ़ोल्डर	-2789
▁उदा	-2790
rah	-2791
▁due	-2792
▁आवश्यक	-2793
जों	-2794
र्स	-2795
▁dep	-2796
▁language	-2797
▁available	-2798
ium	-2799
na	-2800
▁सिद्ध	-2801
न्म	-2802
▁She	-2803
ENT	-2804
ross	-2805
▁चयन	-2806
▁भु	-2807
दर्शन	-2808
▁सुरक्षा	-2809
▁आध	-2810
▁घो	-2811
▁निम्न	-2812
▁सभा	-2813
cri	-2814
र्द	-2815
▁offic	-2816
▁trad	-2817
▁family	-2818
▁sche	-2819
▁rev	-2820
▁13	-2821
ering	-2822
▁jud	-2823
स्तान	-2824
▁आग	-2825
▁कवि	-2826
▁फर	-2827
द्द	-2828
▁रहने	-2829
▁वेब	-2830
ording	-2831
▁उसको	-2832
▁वर्ग	-2833
बल	-2834
▁prote	-2835
ailed	-2836
ief	-2837
ेशा	-2838
enger	-2839
▁जाओ	-2840
मंत्री	-2841
▁प्रती	-2842
जि	-2843
▁मर	-2844
▁निर्ण	-2845
▁कैसे	-2846
ंव	-2847
▁देशों	-2848
चन	-2849
चि	-2850
राम	-2851
3⁄4	-2852
¤3⁄4	-2853
▁issu	-2854
▁बराबर	-2855
▁रहते	-2856
iversity	-2857
▁डी	-2858
▁str	-2859
▁यक़	-2860
▁Central	-2861
▁exist	-2862
डे	-2863
▁चे	-2864
▁plan	-2865
▁brought	-2866
.0	-2867
▁खेल	-2868
uss	-2869
▁विवरण	-2870
▁Del	-2871
han	-2872
ान्त	-2873
▁value	-2874
▁class	-2875
▁नए	-2876
▁bre	-2877
▁स्थित	-2878
▁heavens	-2879
▁टे	-2880
▁run	-2881
भर	-2882
कु	-2883
▁x	-2884
▁सिर्फ	-2885
▁न्यायालय	-2886
▁14	-2887
पना	-2888
ala	-2889
▁love	-2890
ately	-2891
जर	-2892
▁नया	-2893
िश्त	-2894
▁लेने	-2895
▁कोर्इ	-2896
line	-2897
▁food	-2898
IN	-2899
▁''	-2900
iful	-2901
ंधान	-2902
▁ri	-2903
▁met	-2904
▁send	-2905
▁आकार	-2906
एम	-2907
ances	-2908
▁national	-2909
फा	-2910
ajor	-2911
▁माँ	-2912
▁चुके	-2913
▁जाये	-2914
hing	-2915
ेंट	-2916
urity	-2917
ets	-2918
▁cause	-2919
▁अतिरिक्त	-2920
वाई	-2921
मि	-2922
रोध	-2923
tal	-2924
▁const	-2925
▁death	-2926
ructure	-2927
ूरत	-2928
▁चुका	-2929
▁पड़े	-2930
कृतिक	-2931
बू	-2932
▁रखने	-2933
ीकरण	-2934
rie	-2935
▁tas	-2936
▁lim	-2937
▁command	-2938
▁#44	-2939
▁#44;	-2940
▁197	-2941
▁punishment	-2942
▁ज़ि	-2943
▁194	-2944
▁Dep	-2945
▁विन	-2946
सित	-2947
▁hard	-2948
तार	-2949
▁सन्	-2950
ready	-2951
▁house	-2952
ently	-2953
▁उत्पादन	-2954
▁कहने	-2955
▁little	-2956
▁वाप	-2957
ising	-2958
मन	-2959
ग्री	-2960
▁30	-2961
▁तुमने	-2962
▁यात्रा	-2963
▁क़ौम	-2964
पन्न	-2965
▁कर्	-2966
▁Be	-2967
used	-2968
▁इन्	-2969
▁मार	-2970
▁Americ	-2971
▁ey	-2972
ification	-2973
▁अंतर्गत	-2974
क्ता	-2975
▁रि	-2976
▁क्षमता	-2977
ource	-2978
gether	-2979
▁comput	-2980
▁together	-2981
augh	-2982
▁vill	-2983
▁आकाश	-2984
▁वहाँ	-2985
ट्टी	-2986
वेदन	-2987
▁non	-2988
स्थ्य	-2989
▁data	-2990
▁बचा	-2991
ष्ट्रीय	-2992
isions	-2993
ceed	-2994
▁परिवार	-2995
क्षम	-2996
▁associ	-2997
▁few	-2998
▁महान	-2999
opt	-3000
▁उठ	-3001
▁Sub	-3002
▁father	-3003
nect	-3004
▁अप्र	-3005
▁self	-3006
▁अनुसंधान	-3007
▁far	-3008
▁संवि	-3009
▁२	-3010
aim	-3011
पूर्व	-3012
▁kg	-3013
▁पश्च	-3014
▁एन	-3015
▁बुरा	-3016
००	-3017
orn	-3018
▁संस	-3019
▁हिंद	-3020
▁17	-3021
oney	-3022
ोस	-3023
▁matter	-3024
िष्ट	-3025
▁ce	-3026
▁Islam	-3027
▁ru	-3028
▁व्यवस्था	-3029
▁लाए	-3030
▁service	-3031
rial	-3032
तमान	-3033
▁supp	-3034
▁तु	-3035
ait	-3036
▁eng	-3037
▁उद्देश्य	-3038
¥	-3039
▁निवेश	-3040
▁मंदिर	-3041
▁Can	-3042
▁बच्चों	-3043
ivid	-3044
▁Bhavan	-3045
▁programm	-3046
▁सोच	-3047
▁care	-3048
ternational	-3049
▁लगता	-3050
rict	-3051
▁object	-3052
▁परी	-3053
▁जिन्हें	-3054
cing	-3055
बन्ध	-3056
▁Add	-3057
▁whole	-3058
▁त्रुट	-3059
▁cr	-3060
▁भू	-3061
▁rese	-3062
▁second	-3063
uty	-3064
▁यातना	-3065
het	-3066
▁net	-3067
▁सां	-3068
ंधी	-3069
▁already	-3070
▁बाल	-3071
▁मनुष	-3072
▁पत्	-3073
▁product	-3074
ष्ण	-3075
▁राशि	-3076
iqu	-3077
▁countries	-3078
▁mer	-3079
irit	-3080
ying	-3081
▁वालों	-3082
▁enc	-3083
▁थीं	-3084
ricult	-3085
reen	-3086
▁true	-3087
▁field	-3088
section	-3089
▁Rs	-3090
▁cal	-3091
▁बहु	-3092
▁वर्षों	-3093
▁परन्तु	-3094
io	-3095
ured	-3096
▁समु	-3097
ability	-3098
▁sw	-3099
कर्ता	-3100
▁राम	-3101
▁अर	-3102
▁हमारा	-3103
▁subject	-3104
▁around	-3105
▁युद्ध	-3106
▁area	-3107
▁near	-3108
▁night	-3109
▁पृष्ठ	-3110
▁संपर्क	-3111
▁thought	-3112
raph	-3113
▁निष्	-3114
▁Rasht	-3115
लग	-3116
▁कौन	-3117
▁एस	-3118
irc	-3119
urther	-3120
▁इतिहास	-3121
ME	-3122
▁हाला	-3123
▁देखते	-3124
▁charact	-3125
▁शहर	-3126
▁दूसरी	-3127
agement	-3128
ज्	-3129
▁थो	-3130
aring	-3131
▁op	-3132
▁Dis	-3133
▁fund	-3134
▁reve	-3135
▁Ag	-3136
▁प्रदेश	-3137
▁निस्	-3138
▁प्रारंभ	-3139
ope	-3140
▁expl	-3141
▁सदस्य	-3142
▁विधि	-3143
▁hig	-3144
हित्य	-3145
▁बेहतर	-3146
षित	-3147
धारण	-3148
▁provided	-3149
▁ple	-3150
▁वर्तमान	-3151
▁बनाए	-3152
▁date	-3153
▁common	-3154
▁gave	-3155
ference	-3156
itte	-3157
ोर्ट	-3158
▁अधिकारी	-3159
▁स्वास्थ्य	-3160
ma	-3161
reng	-3162
ठला	-3163
रिका	-3164
श्र	-3165
▁उपधारा	-3166
हे	-3167
ards	-3168
▁ann	-3169
▁Sec	-3170
▁capital	-3171
ali	-3172
त्मा	-3173
▁thing	-3174
▁members	-3175
▁विशिष्ट	-3176
rapati	-3177
▁still	-3178
iti	-3179
यान	-3180
▁perform	-3181
str	-3182
गल	-3183
▁स्वतंत्र	-3184
▁चित्र	-3185
▁feel	-3186
▁मूसा	-3187
▁Sing	-3188
▁प्रस्तुत	-3189
▁चा	-3190
▁age	-3191
▁लाख	-3192
क्म	-3193
▁Your	-3194
▁शरीर	-3195
▁don	-3196
तने	-3197
शो	-3198
▁hold	-3199
झा	-3200
▁Gand	-3201
▁न्याय	-3202
▁able	-3203
दर	-3204
▁services	-3205
▁निर्देश	-3206
▁liter	-3207
ांत	-3208
▁making	-3209
ories	-3210
▁वर्ण	-3211
iding	-3212
▁प्रशिक्ष	-3213
ख़िर	-3214
▁del	-3215
▁signs	-3216
▁पेश	-3217
▁आरंभ	-3218
IT	-3219
ogn	-3220
▁following	-3221
▁हमेशा	-3222
▁Cont	-3223
▁test	-3224
▁pract	-3225
रि	-3226
▁sol	-3227
akes	-3228
▁particular	-3229
तक	-3230
sh	-3231
▁economic	-3232
▁words	-3233
▁Indeed	-3234
▁cost	-3235
▁prob	-3236
ians	-3237
▁tax	-3238
▁सत्य	-3239
▁above	-3240
▁el	-3241
▁आन	-3242
▁based	-3243
ners	-3244
▁Delhi	-3245
▁तौर	-3246
▁Spe	-3247
▁beg	-3248
▁major	-3249
▁Those	-3250
जो	-3251
▁worship	-3252
ems	-3253
मिल	-3254
▁Brit	-3255
▁त्रुटि	-3256
▁सका	-3257
▁eas	-3258
▁Rashtrapati	-3259
eness	-3260
▁तुमको	-3261
ानीय	-3262
come	-3263
▁respons	-3264
थम	-3265
ger	-3266
iver	-3267
▁god	-3268
▁रात	-3269
▁उदाहरण	-3270
गु	-3271
OR	-3272
▁provide	-3273
▁action	-3274
▁path	-3275
▁plac	-3276
¤	-3277
▁nation	-3278
▁ever	-3279
▁अमेरिका	-3280
▁साहित्य	-3281
▁dou	-3282
viron	-3283
ancial	-3284
▁दक्षि	-3285
▁streng	-3286
▁शे	-3287
▁pray	-3288
▁दृष्टि	-3289
¤°	-3290
▁प्रश्	-3291
▁areas	-3292
ession	-3293
▁जहाँ	-3294
▁झुठला	-3295
▁Us	-3296
▁Pre	-3297
जित	-3298
▁himself	-3299
▁अपे	-3300
▁having	-3301
▁Rep	-3302
ividual	-3303
वाब	-3304
▁नौ	-3305
itness	-3306
▁दिल्ली	-3307
▁जिनके	-3308
▁pain	-3309
eous	-3310
ling	-3311
liament	-3312
ience	-3313
ilities	-3314
सलमान	-3315
▁शिक	-3316
▁देगा	-3317
▁until	-3318
▁took	-3319
▁घटना	-3320
▁seen	-3321
▁अनुभव	-3322
▁asse	-3323
▁sing	-3324
्‍	-3325
▁type	-3326
aining	-3327
जरा	-3328
▁always	-3329
▁school	-3330
▁हुक्म	-3331
▁निर्णय	-3332
val	-3333
▁kgm	-3334
▁प्रधानमंत्री	-3335
▁belong	-3336
▁विकसित	-3337
▁mill	-3338
▁mean	-3339
▁consider	-3340
▁though	-3341
ड़ों	-3342
oses	-3343
▁अंग्रे	-3344
artment	-3345
▁prin	-3346
लू	-3347
▁ve	-3348
▁बंद	-3349
▁special	-3350
ंतिम	-3351
ष्य	-3352
▁मिले	-3353
▁policy	-3354
AL	-3355
▁society	-3356
कम	-3357
ोजित	-3358
▁छोटे	-3359
▁निर	-3360
HE	-3361
▁जिन्होंने	-3362
तो	-3363
osed	-3364
isation	-3365
▁वास्ते	-3366
▁संसा	-3367
निश्च	-3368
itor	-3369
▁स्थानीय	-3370
नाथ	-3371
vironment	-3372
्रिय	-3373
oura	-3374
ilit	-3375
▁current	-3376
रीब	-3377
▁आसमान	-3378
▁hearts	-3379
▁भि	-3380
▁Acc	-3381
▁इस्त	-3382
▁श्रेणी	-3383
▁--	-3384
chie	-3385
क्षर	-3386
ges	-3387
▁शीर्ष	-3388
ैस	-3389
ication	-3390
खित	-3391
ुओं	-3392
adesh	-3393
र्जा	-3394
बत	-3395
▁अफ	-3396
▁Gener	-3397
▁States	-3398
▁poet	-3399
idence	-3400
▁Ass	-3401
▁aut	-3402
istry	-3403
aled	-3404
▁एक्स	-3405
▁regard	-3406
▁Commission	-3407
शल	-3408
lection	-3409
hat	-3410
icult	-3411
लाई	-3412
▁creat	-3413
ples	-3414
▁चिक	-3415
ential	-3416
▁रू	-3417
▁market	-3418
af	-3419
arent	-3420
▁along	-3421
▁individual	-3422
▁mus	-3423
▁necess	-3424
ंगा	-3425
▁sector	-3426
▁काल	-3427
▁सेट	-3428
▁create	-3429
▁nothing	-3430
्श	-3431
▁instru	-3432
hy	-3433
▁whether	-3434
▁भूमि	-3435
गति	-3436
▁farm	-3437
▁पक	-3438
uro	-3439
▁live	-3440
शिया	-3441
▁post	-3442
▁अला	-3443
▁तहत	-3444
▁mult	-3445
▁point	-3446
संदेह	-3447
play	-3448
▁रचना	-3449
▁rul	-3450
▁प्रस्ता	-3451
▁tell	-3452
ises	-3453
▁प्रस	-3454
▁मौजूद	-3455
▁बोल	-3456
▁repres	-3457
▁young	-3458
▁Em	-3459
▁प्रेम	-3460
साय	-3461
▁सर्	-3462
▁meas	-3463
▁क्ल	-3464
▁whose	-3465
▁home	-3466
ara	-3467
▁2.	-3468
▁Cour	-3469
ज्ञा	-3470
▁occas	-3471
ribut	-3472
uct	-3473
▁बल	-3474
▁local	-3475
▁दया	-3476
atch	-3477
▁सार्व	-3478
ier	-3479
▁अंतिम	-3480
▁orig	-3481
▁परंतु	-3482
▁अनि	-3483
▁किये	-3484
▁spirit	-3485
▁express	-3486
▁निश्चित	-3487
च्छा	-3488
▁विदेशी	-3489
▁vers	-3490
▁five	-3491
▁भेजा	-3492
▁refer	-3493
▁पाया	-3494
▁पहुँच	-3495
▁संच	-3496
cience	-3497
▁पहचान	-3498
▁Gandhi	-3499
▁fav	-3500
▁हक़	-3501
▁political	-3502
ण्	-3503
20	-3504
umb	-3505
ammad	-3506
▁दस्ता	-3507
▁seek	-3508
▁निर्धारण	-3509
▁दुर्	-3510
▁enter	-3511
akh	-3512
ream	-3513
ails	-3514
▁बंग	-3515
▁therefore	-3516
ैंड	-3517
▁yet	-3518
वासी	-3519
veral	-3520
▁लं	-3521
▁भूमिका	-3522
▁including	-3523
▁next	-3524
▁उन्	-3525
▁जल्	-3526
ched	-3527
oad	-3528
दू	-3529
▁24	-3530
▁मांग	-3531
cil	-3532
▁दिशा	-3533
▁With	-3534
▁जन्म	-3535
▁तकनी	-3536
ज़िल	-3537
▁later	-3538
cent	-3539
▁प्रस्ताव	-3540
▁हिस्सा	-3541
▁ut	-3542
▁believers	-3543
▁रहता	-3544
▁achie	-3545
com	-3546
▁प्रवेश	-3547
IS	-3548
pportun	-3549
▁PRES	-3550
ames	-3551
▁Now	-3552
minist	-3553
▁side	-3554
▁नागर	-3555
▁भाई	-3556
▁नव	-3557
ेंस	-3558
▁राजनी	-3559
lement	-3560
▁complete	-3561
bo	-3562
▁रिप	-3563
▁growth	-3564
▁question	-3565
▁आधारित	-3566
▁संभव	-3567
िकों	-3568
▁लक्ष्य	-3569
▁guid	-3570
ustom	-3571
▁further	-3572
▁जिसकी	-3573
reme	-3574
▁clause	-3575
ोगे	-3576
▁deeds	-3577
▁folder	-3578
▁संयुक्त	-3579
भू	-3580
फिर	-3581
ead	-3582
▁es	-3583
▁Bank	-3584
▁Rem	-3585
▁छवि	-3586
▁तत्व	-3587
▁सक्रिय	-3588
▁witness	-3589
यां	-3590
▁इस्ला	-3591
ील	-3592
▁राह	-3593
▁अनुमति	-3594
▁thee	-3595
▁became	-3596
▁प्राधिक	-3597
▁religion	-3598
▁50	-3599
सू	-3600
ours	-3601
▁Not	-3602
▁control	-3603
्रेस	-3604
ats	-3605
els	-3606
▁(2)	-3607
▁इंड	-3608
eration	-3609
▁पहली	-3610
राही	-3611
ोक्ता	-3612
▁घा	-3613
▁गांधी	-3614
▁विकल्प	-3615
The	-3616
▁Beng	-3617
▁वाद	-3618
▁विस्तार	-3619
▁Show	-3620
जह	-3621
▁Please	-3622
▁received	-3623
▁माना	-3624
¥	-3625
▁पिछले	-3626
यात	-3627
▁Col	-3628
▁Reg	-3629
arat	-3630
▁निस्संदेह	-3631
▁opportun	-3632
▁z	-3633
दारों	-3634
▁nature	-3635
▁hands	-3636
pose	-3637
▁नियंत्रण	-3638
▁बच	-3639
▁money	-3640
atever	-3641
▁diff	-3642
▁100	-3643
bt	-3644
मू	-3645
▁mor	-3646
▁X	-3647
ann	-3648
▁बच्चे	-3649
▁short	-3650
▁since	-3651
ources	-3652
▁total	-3653
ta	-3654
दय	-3655
स्म	-3656
hammad	-3657
illed	-3658
▁वार	-3659
▁कमी	-3660
▁Sy	-3661
▁मित्र	-3662
ार्ड	-3663
▁@	-3664
▁दस्तावे	-3665
▁Cl	-3666
वस्था	-3667
▁कृप	-3668
▁बाजार	-3669
▁लेते	-3670
▁leave	-3671
▁वित्तीय	-3672
▁dr	-3673
▁docu	-3674
cribed	-3675
भूत	-3676
▁गर्	-3677
erve	-3678
▁impro	-3679
▁equal	-3680
एल	-3681
▁Ph	-3682
▁जह	-3683
▁Prov	-3684
ृत्यु	-3685
▁संबंधी	-3686
outh	-3687
▁institut	-3688
▁peace	-3689
itional	-3690
▁मनुष्य	-3691
ergy	-3692
ences	-3693
▁British	-3694
▁English	-3695
▁probably	-3696
ude	-3697
▁संक	-3698
ुनिक	-3699
after	-3700
rael	-3701
ened	-3702
opy	-3703
ंगे	-3704
▁निर्दिष्ट	-3705
ached	-3706
▁यक़ीन	-3707
▁cred	-3708
▁जांच	-3709
▁ट्र	-3710
▁मही	-3711
▁held	-3712
वरी	-3713
▁reason	-3714
यु	-3715
▁स्थापना	-3716
ायद	-3717
▁After	-3718
▁got	-3719
▁प्रगति	-3720
चर	-3721
वीं	-3722
्टी	-3723
लिखित	-3724
▁share	-3725
ेमाल	-3726
चल	-3727
म्मे	-3728
▁पहुँचा	-3729
ंतर	-3730
सान	-3731
▁text	-3732
ribution	-3733
for	-3734
▁record	-3735
▁ill	-3736
▁went	-3737
▁मॉ	-3738
▁Most	-3739
▁इस्तेमाल	-3740
्राम	-3741
▁possible	-3742
br	-3743
▁function	-3744
▁mater	-3745
▁मंत्रालय	-3746
▁खुद	-3747
▁उपकरण	-3748
▁तंत्र	-3749
omes	-3750
▁technology	-3751
ंसा	-3752
ittee	-3753
▁अग्र	-3754
▁सहायक	-3755
न्ट	-3756
▁वृद्धि	-3757
▁Su	-3758
▁cro	-3759
▁example	-3760
▁न्यू	-3761
▁son	-3762
▁really	-3763
▁झू	-3764
शाली	-3765
▁जाय	-3766
साइट	-3767
▁brother	-3768
▁मृत्यु	-3769
ivil	-3770
▁’	-3771
▁(3	-3772
▁दिनों	-3773
▁अध्ययन	-3774
▁Af	-3775
dom	-3776
▁पुकार	-3777
▁समुदा	-3778
▁mother	-3779
▁knows	-3780
epend	-3781
▁Messenger	-3782
▁डाक	-3783
▁अलावा	-3784
▁संविधान	-3785
▁dise	-3786
▁strong	-3787
▁THE	-3788
IDENT	-3789
▁connect	-3790
▁गुम	-3791
▁वापस	-3792
पट	-3793
▁required	-3794
ibility	-3795
ior	-3796
cious	-3797
▁प्रथम	-3798
गि	-3799
▁भावना	-3800
▁research	-3801
िको	-3802
▁रखता	-3803
▁face	-3804
▁key	-3805
▁relations	-3806
ानि	-3807
घा	-3808
▁सिंह	-3809
▁प्रबंधन	-3810
▁फल	-3811
▁चिकित	-3812
▁संभाव	-3813
▁translation	-3814
▁लें	-3815
most	-3816
निश्चित	-3817
▁Israel	-3818
▁Pe	-3819
▁lot	-3820
▁either	-3821
▁previous	-3822
▁भीतर	-3823
▁access	-3824
र्श	-3825
.1	-3826
▁started	-3827
▁mis	-3828
▁समर्थन	-3829
▁केन्द्र	-3830
▁वास्तविक	-3831
स्थिति	-3832
▁Hindi	-3833
गतान	-3834
bar	-3835
▁position	-3836
म्ब	-3837
uation	-3838
▁fut	-3839
▁forth	-3840
▁प्रश्न	-3841
ँच	-3842
▁flow	-3843
▁Prime	-3844
▁pati	-3845
▁अधि	-3846
▁industry	-3847
▁PRESIDENT	-3848
▁बिल	-3849
just	-3850
▁सहित	-3851
▁Develop	-3852
change	-3853
▁समिति	-3854
▁ur	-3855
ुआ	-3856
▁selected	-3857
aster	-3858
▁नाज़िल	-3859
▁उत्पन्न	-3860
▁air	-3861
▁तुल	-3862
▁सेना	-3863
▁reward	-3864
▁several	-3865
bit	-3866
विष्य	-3867
▁Singh	-3868
▁anything	-3869
ौती	-3870
▁आदमी	-3871
▁लिखा	-3872
▁dom	-3873
▁priv	-3874
gu	-3875
▁आत्म	-3876
▁193	-3877
▁Some	-3878
र्जी	-3879
ton	-3880
▁foreign	-3881
▁occasion	-3882
ively	-3883
▁Name	-3884
▁port	-3885
▁ऊर्जा	-3886
यामत	-3887
▁using	-3888
▁कृपया	-3889
▁हटा	-3890
stitute	-3891
▁"%	-3892
▁पुस्तक	-3893
▁खे	-3894
▁big	-3895
▁कोशिश	-3896
ज़े	-3897
पण	-3898
udd	-3899
▁पौ	-3900
men	-3901
च्चा	-3902
idd	-3903
्ले	-3904
ek	-3905
ION	-3906
▁fall	-3907
▁एम	-3908
obal	-3909
▁पूंजी	-3910
न्यास	-3911
optional	-3912
▁stat	-3913
▁certainly	-3914
▁खाता	-3915
▁प्रशिक्षण	-3916
▁पुनः	-3917
स्ती	-3918
▁सुना	-3919
▁मंत्री	-3920
▁i	-3921
ring	-3922
▁concern	-3923
▁सुनिश्चित	-3924
▁गुनाह	-3925
▁lab	-3926
▁anim	-3927
▁progress	-3928
▁चाल	-3929
▁विंडो	-3930
द्रा	-3931
▁working	-3932
▁itself	-3933
▁Sw	-3934
▁खो	-3935
earch	-3936
▁character	-3937
▁देव	-3938
▁भविष्य	-3939
▁activities	-3940
ouncil	-3941
IC	-3942
तुम	-3943
otion	-3944
▁21	-3945
▁plant	-3946
ony	-3947
▁दक्षिण	-3948
icle	-3949
▁sat	-3950
lu	-3951
▁error	-3952
▁मात्रा	-3953
▁commit	-3954
hold	-3955
▁योग्य	-3956
जनिक	-3957
▁recogn	-3958
▁सफलता	-3959
▁course	-3960
▁application	-3961
ault	-3962
▁Hindu	-3963
▁धार	-3964
▁मिटा	-3965
▁शायद	-3966
स्ति	-3967
्रोत	-3968
▁ति	-3969
क्या	-3970
▁सर्वर	-3971
▁contact	-3972
▁भुगतान	-3973
▁sum	-3974
▁पूरे	-3975
▁युवा	-3976
▁Ministry	-3977
▁authority	-3978
▁निशान	-3979
नाव	-3980
▁elect	-3981
▁*	-3982
▁University	-3983
▁Cong	-3984
We	-3985
IA	-3986
▁pat	-3987
▁Here	-3988
▁inn	-3989
▁Offic	-3990
▁difficult	-3991
पे	-3992
▁मश	-3993
▁obs	-3994
शु	-3995
▁ख़ु	-3996
▁पुरा	-3997
aps	-3998
mission	-3999
ully	-4000
स्कार	-4001
▁भिन्न	-4002
▁history	-4003
▁Parliament	-4004
बान	-4005
▁जैसी	-4006
rodu	-4007
ापन	-4008
▁आधुनिक	-4009
▁राजा	-4010
▁सरकारी	-4011
▁संग्रह	-4012
osp	-4013
cell	-4014
्यूटर	-4015
▁पुरुष	-4016
▁mag	-4017
ograph	-4018
▁क्षमा	-4019
▁opp	-4020
▁उम्	-4021
खी	-4022
गाह	-4023
▁(19	-4024
▁Comp	-4025
▁कप	-4026
▁line	-4027
▁rate	-4028
गो	-4029
त्सा	-4030
▁deal	-4031
▁प्रे	-4032
पु	-4033
urely	-4034
▁लेखा	-4035
ैल	-4036
▁Bo	-4037
ियान	-4038
▁visit	-4039
vi	-4040
▁कार्यालय	-4041
▁सिर	-4042
▁सत्ता	-4043
aries	-4044
्ष्	-4045
▁dri	-4046
▁कांग	-4047
▁trust	-4048
▁entire	-4049
▁ident	-4050
ape	-4051
▁top	-4052
▁जे	-4053
▁हैः	-4054
▁production	-4055
▁स्कूल	-4056
▁future	-4057
▁nat	-4058
▁initi	-4059
▁works	-4060
aughter	-4061
▁मुसलमान	-4062
▁सार्वजनिक	-4063
▁|	-4064
▁जाएँगे	-4065
▁आक	-4066
▁डॉ	-4067
▁आख़िर	-4068
▁उपबंध	-4069
une	-4070
वाले	-4071
▁doing	-4072
श्छ	-4073
▁why	-4074
▁दाय	-4075
▁हित	-4076
▁खिला	-4077
▁वेबसाइट	-4078
▁financial	-4079
▁देखने	-4080
▁सम्मान	-4081
▁रिपोर्ट	-4082
▁फाइल	-4083
▁quality	-4084
▁+	-4085
▁transfer	-4086
▁lib	-4087
▁represent	-4088
▁इतना	-4089
▁hy	-4090
▁उनपर	-4091
▁assess	-4092
परी	-4093
▁दृश्य	-4094
▁circ	-4095
▁behind	-4096
ches	-4097
▁उद्य	-4098
▁खुल	-4099
▁खरी	-4100
▁story	-4101
▁report	-4102
▁जरूरत	-4103
ज़ार	-4104
ण्श्छ	-4105
ण्श्छ्ष्	-4106
ilt	-4107
ऊण्श्छ्ष्	-4108
ँह	-4109
▁grant	-4110
▁राज्यों	-4111
▁community	-4112
▁asked	-4113
▁image	-4114
▁कमा	-4115
--	-4116
mber	-4117
urope	-4118
▁कट	-4119
▁प्रदर्श	-4120
▁fire	-4121
▁Des	-4122
▁cell	-4123
▁खाते	-4124
▁यूर	-4125
ills	-4126
▁suff	-4127
▁कम्प	-4128
▁मुक़	-4129
▁agricult	-4130
▁purpose	-4131
bsite	-4132
ilar	-4133
▁सत	-4134
▁चुनें	-4135
▁material	-4136
by	-4137
▁वैज्ञान	-4138
▁provisions	-4139
▁बातें	-4140
▁property	-4141
वस	-4142
▁अह	-4143
▁चले	-4144
▁save	-4145
▁news	-4146
▁वन	-4147
▁प्रकृति	-4148
▁Dr	-4149
,000	-4150
▁harm	-4151
isl	-4152
▁जित	-4153
▁मामलों	-4154
itiz	-4155
▁established	-4156
लब	-4157
▁Fin	-4158
imum	-4159
tt	-4160
▁enj	-4161
▁vi	-4162
▁फ़र	-4163
lling	-4164
▁App	-4165
▁learn	-4166
ंथ	-4167
ension	-4168
▁close	-4169
▁security	-4170
rab	-4171
▁link	-4172
▁सक्षम	-4173
▁General	-4174
▁Ver	-4175
ामीण	-4176
▁city	-4177
▁Co	-4178
▁Pradesh	-4179
▁comes	-4180
▁hon	-4181
aun	-4182
▁हस्ता	-4183
▁Court	-4184
राह	-4185
र्चा	-4186
द्रीय	-4187
स्ल	-4188
▁26	-4189
▁network	-4190
▁redu	-4191
▁fight	-4192
▁साफ	-4193
▁once	-4194
▁Direct	-4195
लाइन	-4196
▁लाल	-4197
▁संगठन	-4198
▁meeting	-4199
unt	-4200
irth	-4201
▁ens	-4202
▁उल्लेख	-4203
▁soul	-4204
▁students	-4205
▁रहो	-4206
▁By	-4207
▁मालूम	-4208
acity	-4209
▁ded	-4210
▁आत	-4211
▁problem	-4212
▁करोड़	-4213
▁scheme	-4214
▁necessary	-4215
▁संके	-4216
▁living	-4217
▁Serv	-4218
▁जवाब	-4219
▁therein	-4220
▁bar	-4221
istan	-4222
▁six	-4223
▁treat	-4224
निक	-4225
▁bra	-4226
▁months	-4227
▁told	-4228
▁शासन	-4229
▁बातों	-4230
▁निकट	-4231
▁संपाद	-4232
▁अत्यन्त	-4233
▁प्ल	-4234
urs	-4235
side	-4236
बूत	-4237
▁देती	-4238
▁समझा	-4239
▁ans	-4240
▁Could	-4241
▁ढा	-4242
त्त्व	-4243
▁गुर	-4244
▁demand	-4245
▁mail	-4246
ड़क	-4247
ल्पना	-4248
▁IND	-4249
▁जहन्न	-4250
▁शुभ	-4251
▁कानून	-4252
▁continu	-4253
▁Open	-4254
▁greater	-4255
▁ग्रामीण	-4256
▁सम्बन्ध	-4257
एक	-4258
ंडल	-4259
▁बने	-4260
▁अन्	-4261
ख्स	-4262
ront	-4263
श्वर	-4264
▁Development	-4265
ताल	-4266
cip	-4267
▁talk	-4268
▁mercy	-4269
▁higher	-4270
ethod	-4271
▁जिनमें	-4272
िब	-4273
वाही	-4274
▁step	-4275
▁यक़ीनन	-4276
be	-4277
▁सामग्री	-4278
▁hath	-4279
▁related	-4280
▁referred	-4281
▁High	-4282
ung	-4283
airs	-4284
▁ten	-4285
▁files	-4286
▁मुझ	-4287
▁अपरा	-4288
see	-4289
▁whatever	-4290
ina	-4291
▁leaders	-4292
ग़म्बर	-4293
▁Europe	-4294
▁अपेक्षा	-4295
▁नदी	-4296
▁नेट	-4297
▁दिखाएँ	-4298
▁000	-4299
aged	-4300
▁सदस्यों	-4301
▁Congress	-4302
गीत	-4303
▁ऑफ	-4304
▁आँ	-4305
▁agree	-4306
▁लॉ	-4307
ारोह	-4308
▁imm	-4309
▁संरचना	-4310
uf	-4311
▁रिक	-4312
ंगी	-4313
▁di	-4314
▁उचित	-4315
▁institutions	-4316
mitted	-4317
▁implement	-4318
▁छिप	-4319
ल्ल	-4320
चारी	-4321
▁Know	-4322
मय	-4323
ones	-4324
▁written	-4325
र्ग	-4326
म्भ	-4327
▁वजह	-4328
action	-4329
▁environment	-4330
rast	-4331
▁संसद	-4332
▁court	-4333
▁दिखाई	-4334
▁विनिर्	-4335
▁गी	-4336
▁पहा	-4337
▁mount	-4338
▁ones	-4339
▁पस	-4340
▁past	-4341
word	-4342
▁शख्स	-4343
erciful	-4344
फ्	-4345
दर्भ	-4346
esides	-4347
▁decl	-4348
fully	-4349
▁पर्य	-4350
uk	-4351
▁Thus	-4352
▁forward	-4353
एफ	-4354
▁design	-4355
pur	-4356
uly	-4357
▁House	-4358
engers	-4359
▁23	-4360
▁Ev	-4361
▁काफ़	-4362
वर्ष	-4363
▁abs	-4364
▁पुल	-4365
▁प्रशासन	-4366
▁stri	-4367
▁पड़ा	-4368
▁Let	-4369
बह	-4370
▁phys	-4371
▁31	-4372
itive	-4373
▁री	-4374
▁sin	-4375
▁तारी	-4376
▁revealed	-4377
ointed	-4378
▁warn	-4379
▁सच	-4380
▁modern	-4381
ideo	-4382
▁रक्षा	-4383
▁कहो	-4384
▁RRB	-4385
▁rele	-4386
▁संदर्भ	-4387
काम	-4388
प्रे	-4389
olk	-4390
▁pot	-4391
▁soon	-4392
▁guidance	-4393
▁sal	-4394
▁List	-4395
▁needs	-4396
▁प्रकट	-4397
▁चाहिये	-4398
▁समारोह	-4399
टल	-4400
▁̧	-4401
▁ईसा	-4402
▁पुरस्कार	-4403
▁व्यापक	-4404
▁paid	-4405
▁हास	-4406
▁बुला	-4407
▁administ	-4408
▁eyes	-4409
थमिक	-4410
▁computer	-4411
▁प्रतिनि	-4412
▁specified	-4413
▁Cal	-4414
▁lay	-4415
ीप	-4416
▁website	-4417
ison	-4418
▁compl	-4419
cially	-4420
▁सच्च	-4421
hood	-4422
▁रोज	-4423
▁role	-4424
▁टै	-4425
▁केंद्रीय	-4426
▁प्रोत्सा	-4427
▁repl	-4428
ned	-4429
सत	-4430
▁गैर	-4431
्वी	-4432
▁energy	-4433
▁22	-4434
▁इनमें	-4435
▁अधिका	-4436
▁अध्यक्ष	-4437
▁दौ	-4438
acher	-4439
▁पश्चात	-4440
मह	-4441
▁building	-4442
▁pub	-4443
वालों	-4444
▁प्रतिक	-4445
▁bea	-4446
टों	-4447
▁Nor	-4448
▁determ	-4449
▁बाप	-4450
▁गांव	-4451
▁बयान	-4452
¤¿	-4453
ोग्राम	-4454
बि	-4455
▁मुँह	-4456
▁separ	-4457
▁according	-4458
der	-4459
श्त	-4460
च्छेद	-4461
▁Sp	-4462
ruction	-4463
Name	-4464
ैक	-4465
▁खाद	-4466
orrow	-4467
ush	-4468
istic	-4469
atives	-4470
reedom	-4471
▁तौ	-4472
▁Union	-4473
▁prep	-4474
▁Pol	-4475
पूर्वक	-4476
▁योगदान	-4477
▁निर्यात	-4478
▁believed	-4479
▁Department	-4480
▁speak	-4481
▁goods	-4482
ires	-4483
ैतिक	-4484
▁बदले	-4485
ृह	-4486
▁Sat	-4487
▁office	-4488
▁दशा	-4489
▁force	-4490
medi	-4491
कान	-4492
poses	-4493
▁problems	-4494
▁औद्योगिक	-4495
एन	-4496
▁ter	-4497
▁रखना	-4498
aves	-4499
▁सकें	-4500
ारों	-4501
▁निजी	-4502
ored	-4503
▁आवा	-4504
▁blood	-4505
▁Er	-4506
▁यूरोप	-4507
▁verily	-4508
▁righteous	-4509
-#	-4510
▁invol	-4511
!"	-4512
▁बज	-4513
वधान	-4514
▁claim	-4515
▁Committee	-4516
चीन	-4517
▁recom	-4518
▁turned	-4519
anch	-4520
▁आशा	-4521
▁आयु	-4522
ंकन	-4523
▁मुद्रा	-4524
▁कांग्रेस	-4525
▁प्राथमिक	-4526
▁28	-4527
▁century	-4528
▁सहेज	-4529
▁ध्व	-4530
ex	-4531
phet	-4532
▁destro	-4533
▁लौट	-4534
▁cho	-4535
▁single	-4536
▁method	-4537
▁super	-4538
▁उल	-4539
▁पथ	-4540
▁vari	-4541
ji	-4542
▁wis	-4543
▁दिख	-4544
▁पालन	-4545
▁till	-4546
▁प्राय	-4547
▁particip	-4548
दृ	-4549
▁thy	-4550
र्न	-4551
oid	-4552
▁सर्वो	-4553
▁check	-4554
▁संगीत	-4555
रल	-4556
ival	-4557
rish	-4558
▁king	-4559
▁ground	-4560
▁भग	-4561
▁स्वतंत्रता	-4562
▁Such	-4563
▁रहेंगे	-4564
▁27	-4565
idered	-4566
▁parts	-4567
irt	-4568
▁often	-4569
▁ठहरा	-4570
इयों	-4571
▁दश	-4572
▁LRB	-4573
▁शर्	-4574
▁आतंक	-4575
▁आवेदन	-4576
▁रेल	-4577
▁begin	-4578
ategory	-4579
hile	-4580
▁Muslims	-4581
▁changes	-4582
▁movement	-4583
▁ess	-4584
▁डिस्क	-4585
▁vol	-4586
ख़ुदा	-4587
▁sense	-4588
▁actually	-4589
¤	-4590
▁रखे	-4591
▁किंतु	-4592
abha	-4593
▁Constitution	-4594
सिक	-4595
▁sun	-4596
▁Mr	-4597
वर्ती	-4598
▁एशिया	-4599
imate	-4600
▁extend	-4601
▁scient	-4602
▁समुदाय	-4603
AP	-4604
▁remember	-4605
cription	-4606
▁केन्द	-4607
▁तय	-4608
▁makes	-4609
itation	-4610
रुद्ध	-4611
▁Mad	-4612
acy	-4613
▁प्रभावित	-4614
▁basis	-4615
ological	-4616
ani	-4617
राज	-4618
▁Qur	-4619
्सा	-4620
▁किन	-4621
क्रमण	-4622
▁terms	-4623
0}	-4624
▁रखो	-4625
▁party	-4626
▁̈	-4627
▁however	-4628
ont	-4629
▁arch	-4630
▁पांच	-4631
ita	-4632
▁fr	-4633
▁sound	-4634
डिया	-4635
▁प्रभा	-4636
▁considered	-4637
▁deep	-4638
▁Govern	-4639
वर्क	-4640
▁आयतों	-4641
sue	-4642
▁loss	-4643
▁ange	-4644
ama	-4645
शोधन	-4646
▁acqu	-4647
ousand	-4648
▁crit	-4649
▁everything	-4650
नेट	-4651
ript	-4652
▁आपकी	-4653
▁earli	-4654
▁Bengal	-4655
▁व्यक्तियों	-4656
soever	-4657
▁अर्था	-4658
▁उद्यम	-4659
▁दूसरा	-4660
▁integr	-4661
▁citiz	-4662
वत	-4663
aper	-4664
▁सृ	-4665
reet	-4666
घु	-4667
▁लागत	-4668
सन	-4669
▁mach	-4670
▁चयनित	-4671
पक	-4672
ृति	-4673
ड़ाई	-4674
▁appointed	-4675
ोलन	-4676
▁इस्लाम	-4677
▁Part	-4678
▁village	-4679
asing	-4680
▁Sche	-4681
▁custom	-4682
▁आयात	-4683
▁Select	-4684
▁इब	-4685
▁भौ	-4686
मक	-4687
▁purposes	-4688
▁poor	-4689
▁pen	-4690
▁व्यवहार	-4691
▁million	-4692
िल्म	-4693
▁spread	-4694
▁tree	-4695
▁अवश्य	-4696
न्व	-4697
▁बोर्ड	-4698
▁राय	-4699
▁discuss	-4700
ूदा	-4701
▁Council	-4702
िकी	-4703
▁squ	-4704
▁host	-4705
ulf	-4706
▁global	-4707
फर	-4708
▁Lo	-4709
▁Moses	-4710
▁Cor	-4711
▁ढंग	-4712
मेल	-4713
मो	-4714
aught	-4715
▁Surely	-4716
cut	-4717
▁manner	-4718
▁पर्याप्त	-4719
▁protect	-4720
▁press	-4721
▁However	-4722
▁रकम	-4723
▁पसंद	-4724
▁तरीके	-4725
▁पर्यावरण	-4726
खंड	-4727
▁trade	-4728
▁Techn	-4729
▁fru	-4730
▁आयोजित	-4731
know	-4732
▁Fire	-4733
▁शता	-4734
▁डाला	-4735
▁प्रकाशित	-4736
▁हल	-4737
with	-4738
▁dele	-4739
▁America	-4740
नो	-4741
essee	-4742
▁books	-4743
hether	-4744
ificate	-4745
्ब	-4746
amb	-4747
▁carry	-4748
फ्त	-4749
▁international	-4750
▁firm	-4751
▁fel	-4752
▁Verily	-4753
▁mention	-4754
new	-4755
▁तत्	-4756
▁निदेश	-4757
▁दल	-4758
▁red	-4759
▁देंगे	-4760
▁सुरक्षित	-4761
jee	-4762
▁बढ	-4763
▁display	-4764
rary	-4765
▁धी	-4766
▁compan	-4767
▁expect	-4768
लाम	-4769
▁tor	-4770
.)	-4771
wer	-4772
मीद	-4773
▁आता	-4774
pped	-4775
▁तीस	-4776
▁अवस्था	-4777
▁persons	-4778
▁assist	-4779
▁reach	-4780
▁...	-4781
▁विधान	-4782
पात	-4783
ouses	-4784
ke	-4785
सु	-4786
ियर	-4787
▁अध्या	-4788
▁taking	-4789
ंकि	-4790
▁शांति	-4791
▁Public	-4792
his	-4793
▁low	-4794
▁Information	-4795
▁fig	-4796
▁server	-4797
vey	-4798
ड्ड	-4799
▁राजनीतिक	-4800
go	-4801
▁gives	-4802
▁मुक्त	-4803
कत	-4804
▁parent	-4805
नेवाला	-4806
▁messages	-4807
▁aud	-4808
▁establish	-4809
▁religious	-4810
▁Bl	-4811
▁sac	-4812
▁चुकी	-4813
ots	-4814
▁depend	-4815
▁कहना	-4816
कल	-4817
▁destroy	-4818
▁civil	-4819
▁दृष्ट	-4820
▁passed	-4821
▁सलाह	-4822
▁task	-4823
-2	-4824
▁er	-4825
▁बनी	-4826
▁chall	-4827
▁झूठ	-4828
▁wish	-4829
▁wealth	-4830
▁छोटी	-4831
▁स्रोत	-4832
▁general	-4833
▁terror	-4834
▁viol	-4835
थि	-4836
rect	-4837
▁लाने	-4838
▁निधि	-4839
▁संस्कृति	-4840
▁allowed	-4841
▁गि	-4842
▁बंगाल	-4843
▁norm	-4844
कारा	-4845
▁1,	-4846
▁विशाल	-4847
▁thousand	-4848
▁असम	-4849
्यो	-4850
क्का	-4851
▁पाल	-4852
▁रक्त	-4853
भाल	-4854
▁freedom	-4855
....	-4856
ixed	-4857
▁undert	-4858
▁असफल	-4859
▁विभा	-4860
▁Muk	-4861
▁चर	-4862
▁डेटा	-4863
4)	-4864
▁पदार्थ	-4865
atory	-4866
फ्ट	-4867
aint	-4868
▁चर्चा	-4869
▁हासिल	-4870
▁शब्दों	-4871
▁Ed	-4872
lled	-4873
नेवाले	-4874
▁मशीन	-4875
▁नर	-4876
▁natural	-4877
▁निर्धारिती	-4878
▁management	-4879
▁benefit	-4880
▁assessee	-4881
▁भारी	-4882
uses	-4883
ift	-4884
स्‍	-4885
▁(%	-4886
▁बताया	-4887
ुता	-4888
▁Set	-4889
sequ	-4890
▁none	-4891
▁छात्र	-4892
▁maint	-4893
ols	-4894
ंदा	-4895
▁पल	-4896
inary	-4897
▁ant	-4898
▁ब्या	-4899
▁सीधे	-4900
▁alone	-4901
orld	-4902
▁size	-4903
▁increase	-4904
ग्	-4905
▁issued	-4906
राष्ट्रीय	-4907
▁aware	-4908
▁संय	-4909
▁culture	-4910
▁2000	-4911
द्यपि	-4912
over	-4913
▁conditions	-4914
िक्	-4915
कला	-4916
पो	-4917
▁आते	-4918
▁fast	-4919
▁तेल	-4920
▁jour	-4921
▁least	-4922
▁Muhammad	-4923
▁woman	-4924
▁thus	-4925
माज़	-4926
स्पर	-4927
▁3.	-4928
क्टर	-4929
▁कदम	-4930
▁region	-4931
va	-4932
रीय	-4933
▁दस	-4934
▁INDIA	-4935
-201	-4936
▁प्रभ	-4937
▁early	-4938
▁conduct	-4939
▁साह	-4940
▁दिवस	-4941
▁मुखर्जी	-4942
▁अनुप्र	-4943
uge	-4944
भीर	-4945
▁एह	-4946
▁stay	-4947
▁gen	-4948
▁matters	-4949
▁संरक्षण	-4950
▁पृथ	-4951
ows	-4952
▁क्रम	-4953
राज्य	-4954
▁efforts	-4955
▁निम्नलिखित	-4956
▁UR	-4957
▁सेवाओं	-4958
iles	-4959
व्यवस्था	-4960
adi	-4961
▁search	-4962
City	-4963
nam	-4964
हीन	-4965
rown	-4966
ental	-4967
▁समझौ	-4968
्टर	-4969
वत्ता	-4970
▁इला	-4971
itude	-4972
न्स	-4973
▁१९	-4974
▁source	-4975
▁सिद्धांत	-4976
▁केन्द्रीय	-4977
▁आपका	-4978
षद	-4979
idden	-4980
क्षक	-4981
न्दर	-4982
iii	-4983
▁saying	-4984
कीय	-4985
▁अनुक	-4986
then	-4987
▁cover	-4988
▁developed	-4989
ंबर	-4990
ew	-4991
hara	-4992
▁Chand	-4993
घ्र	-4994
▁=	-4995
▁bur	-4996
▁दू	-4997
▁बैठक	-4998
▁आत्मा	-4999
▁कंप्यूटर	-5000
▁institution	-5001
ंद्र	-5002
▁Afric	-5003
ech	-5004
ump	-5005
ालिम	-5006
mend	-5007
▁तुलना	-5008
▁प्रदर्शन	-5009
▁consum	-5010
▁यद्यपि	-5011
भूति	-5012
▁इका	-5013
▁neither	-5014
krit	-5015
▁enjoy	-5016
धाई	-5017
▁li	-5018
▁̧à	-5019
▁चीज	-5020
▁पेट	-5021
▁మ	-5022
▁Where	-5023
ैव	-5024
चक	-5025
▁partners	-5026
▁condition	-5027
दूस	-5028
▁reject	-5029
▁Are	-5030
▁half	-5031
▁hope	-5032
▁प्रमाणपत्र	-5033
▁training	-5034
▁अगले	-5035
▁pet	-5036
▁बैठे	-5037
cies	-5038
▁soft	-5039
itable	-5040
प्ता	-5041
▁192	-5042
हाद	-5043
▁भागी	-5044
▁भोजन	-5045
क्शन	-5046
▁duty	-5047
▁try	-5048
▁बाग़	-5049
attle	-5050
ening	-5051
▁ग्रह	-5052
यह	-5053
▁saw	-5054
दो	-5055
▁conv	-5056
ptions	-5057
▁followed	-5058
▁संसाधन	-5059
▁job	-5060
▁बनाना	-5061
▁dead	-5062
▁grie	-5063
षणा	-5064
▁outside	-5065
believers	-5066
▁विरुद्ध	-5067
▁May	-5068
▁पकड़	-5069
],	-5070
▁नगर	-5071
▁बधाई	-5072
▁industrial	-5073
▁मिली	-5074
▁प्राकृतिक	-5075
▁आयोग	-5076
▁गुणवत्ता	-5077
▁फरमा	-5078
यल	-5079
▁disease	-5080
CT	-5081
50	-5082
▁उत	-5083
ोधित	-5084
▁क़ुर	-5085
oke	-5086
▁subs	-5087
▁विविध	-5088
▁वीडियो	-5089
बाह	-5090
▁ख़बर	-5091
▁Whether	-5092
▁यथा	-5093
▁आपने	-5094
tax	-5095
ल्ड	-5096
▁स्म	-5097
▁doubt	-5098
▁अनिवार	-5099
▁नेटवर्क	-5100
▁neg	-5101
▁अधिकांश	-5102
▁अंक	-5103
iction	-5104
▁वैश्व	-5105
rs	-5106
ilk	-5107
▁समाधान	-5108
▁Ap	-5109
▁event	-5110
▁इच्छा	-5111
णि	-5112
▁Mon	-5113
▁पंजी	-5114
▁program	-5115
वेयर	-5116
▁उपस्थित	-5117
▁अक्	-5118
▁अत्या	-5119
▁40	-5120
▁Mar	-5121
ार्मिक	-5122
▁credit	-5123
▁log	-5124
▁वैज्ञानिक	-5125
adem	-5126
▁रखी	-5127
▁enough	-5128
ili	-5129
▁eat	-5130
यक	-5131
▁प्रभावी	-5132
▁assessment	-5133
▁प्राचीन	-5134
▁member	-5135
▁छोड़कर	-5136
खे	-5137
फे	-5138
▁80	-5139
▁pros	-5140
iddle	-5141
▁उपाय	-5142
▁experience	-5143
▁Trans	-5144
▁tou	-5145
▁गिरोह	-5146
किंग	-5147
▁पाए	-5148
▁democ	-5149
▁संभावना	-5150
kind	-5151
iveness	-5152
▁Bi	-5153
▁लगी	-5154
कारों	-5155
▁dire	-5156
tings	-5157
▁creation	-5158
▁write	-5159
▁temple	-5160
AS	-5161
mon	-5162
▁ऊँ	-5163
▁पिता	-5164
▁पैग़म्बर	-5165
gment	-5166
▁independ	-5167
ज्ञात	-5168
ब्दी	-5169
▁ज़रूर	-5170
▁ज़ालिम	-5171
उट	-5172
▁भंड	-5173
▁गलत	-5174
▁Error	-5175
▁achieve	-5176
डल	-5177
▁पाने	-5178
▁Even	-5179
▁लेना	-5180
▁Int	-5181
▁across	-5182
ल्कुल	-5183
जूद	-5184
▁US	-5185
aste	-5186
वाला	-5187
▁पर्व	-5188
▁population	-5189
ल्स	-5190
▁जाति	-5191
▁almost	-5192
▁mass	-5193
▁उम्मीद	-5194
▁विद्यार्थ	-5195
बो	-5196
▁हट	-5197
त्री	-5198
▁जिला	-5199
▁opens	-5200
vere	-5201
▁birth	-5202
▁मिलता	-5203
▁Cannot	-5204
▁Kh	-5205
▁लघु	-5206
undred	-5207
▁People	-5208
▁आंद	-5209
▁समृ	-5210
▁सख्त	-5211
▁आती	-5212
▁मना	-5213
▁lost	-5214
▁जल्दी	-5215
▁capacity	-5216
▁drink	-5217
▁rights	-5218
मेलन	-5219
▁पश्चिम	-5220
rist	-5221
▁san	-5222
▁wife	-5223
▁personal	-5224
▁प्रसन्न	-5225
▁बाज़	-5226
▁वायु	-5227
▁बौ	-5228
धिकार	-5229
याँ	-5230
▁town	-5231
्रीन	-5232
ल्लाह	-5233
▁रखें	-5234
▁वर्णन	-5235
थर	-5236
स्य	-5237
▁खड़े	-5238
▁धार्मिक	-5239
▁space	-5240
ique	-5241
▁typ	-5242
▁नमाज़	-5243
alay	-5244
▁अनिवार्य	-5245
▁अता	-5246
▁says	-5247
यें	-5248
▁literature	-5249
चारियों	-5250
ada	-5251
alse	-5252
▁गतिविध	-5253
emed	-5254
▁शिकाय	-5255
▁परीक्षा	-5256
्वा	-5257
▁insp	-5258
▁प्रोग्राम	-5259
ler	-5260
▁stra	-5261
वह	-5262
▁arr	-5263
▁दर्शा	-5264
▁sea	-5265
▁File	-5266
▁stru	-5267
▁bless	-5268
omb	-5269
usion	-5270
▁मेहर	-5271
रित	-5272
face	-5273
▁Qu	-5274
▁शो	-5275
▁tar	-5276
▁सारी	-5277
▁compet	-5278
म्र	-5279
ार्क	-5280
▁करनी	-5281
ane	-5282
▁immedi	-5283
▁sust	-5284
▁cut	-5285
▁संसार	-5286
▁हृ	-5287
▁lat	-5288
▁percent	-5289
▁बर्	-5290
रज़	-5291
rew	-5292
िकोण	-5293
▁fem	-5294
▁सात	-5295
ेप	-5296
▁दबा	-5297
▁महारा	-5298
▁चिकित्सा	-5299
my	-5300
▁wide	-5301
▁trib	-5302
▁gard	-5303
▁resources	-5304
¤2	-5305
ulated	-5306
▁हस्ताक्षर	-5307
▁अस्त	-5308
न्दा	-5309
ह्न	-5310
▁document	-5311
▁अक	-5312
▁provision	-5313
.,	-5314
▁ir	-5315
ators	-5316
▁science	-5317
▁गर्इ	-5318
▁Prophet	-5319
▁charge	-5320
enty	-5321
yle	-5322
▁innov	-5323
▁सम्मेलन	-5324
▁शक	-5325
wise	-5326
सूस	-5327
▁remain	-5328
▁boy	-5329
▁विज	-5330
▁इन्ह	-5331
▁अधिकारियों	-5332
▁अंदर	-5333
abad	-5334
▁मुह	-5335
▁खरीद	-5336
▁ईश्वर	-5337
▁Mod	-5338
रान	-5339
▁छोटा	-5340
▁payment	-5341
▁aim	-5342
▁कुंजी	-5343
▁मजबूत	-5344
▁बिल्कुल	-5345
नाम	-5346
use	-5347
▁मोह	-5348
▁समझते	-5349
▁seven	-5350
rastructure	-5351
▁बन्दों	-5352
gest	-5353
▁exc	-5354
▁third	-5355
▁hundred	-5356
▁रहना	-5357
▁Div	-5358
uration	-5359
▁sugg	-5360
▁गं	-5361
दायत	-5362
▁उपभ	-5363
▁lear	-5364
▁निर्भर	-5365
ॉप	-5366
▁Per	-5367
▁cases	-5368
▁ब्याज	-5369
▁suggest	-5370
▁programme	-5371
ेगा	-5372
▁छु	-5373
▁जोड़ें	-5374
▁writing	-5375
▁receive	-5376
▁disbelieve	-5377
▁तथ	-5378
▁पद्ध	-5379
▁शीघ्र	-5380
▁खर्च	-5381
▁रहती	-5382
▁angels	-5383
▁include	-5384
▁mankind	-5385
▁pal	-5386
▁संस्थानों	-5387
▁IN	-5388
स्टर	-5389
वों	-5390
ares	-5391
ंपरा	-5392
▁kept	-5393
▁continue	-5394
जली	-5395
▁Mukher	-5396
▁earlier	-5397
ufact	-5398
▁similar	-5399
स्टम	-5400
साथ	-5401
धनों	-5402
▁साधारण	-5403
▁संपत्ति	-5404
▁सैन	-5405
▁पुलिस	-5406
▁उन्हीं	-5407
vert	-5408
▁deli	-5409
▁हजार	-5410
▁propos	-5411
▁कूट	-5412
▁शैली	-5413
▁Aut	-5414
estern	-5415
▁मानते	-5416
ging	-5417
▁judge	-5418
▁price	-5419
▁TO	-5420
▁bal	-5421
ँकि	-5422
▁stop	-5423
झी	-5424
स्लिम	-5425
▁महीने	-5426
▁United	-5427
ED	-5428
▁wait	-5429
aff	-5430
▁तुमपर	-5431
िश्ते	-5432
ava	-5433
न्नत	-5434
▁request	-5435
▁lives	-5436
▁teacher	-5437
राहीम	-5438
▁इंटर	-5439
▁वाक़	-5440
▁आख़िरत	-5441
2.	-5442
रू	-5443
▁रास्त	-5444
rote	-5445
▁user	-5446
▁raised	-5447
▁accom	-5448
▁अपराध	-5449
,"	-5450
empt	-5451
▁जरूरी	-5452
▁पुनर्	-5453
राब	-5454
▁front	-5455
▁affect	-5456
ees	-5457
▁डरा	-5458
▁rule	-5459
▁Mukherjee	-5460
मेंट	-5461
विक	-5462
▁पहल	-5463
▁deny	-5464
संग	-5465
▁सीमित	-5466
▁कहानी	-5467
▁ब्रिट	-5468
▁strength	-5469
▁कार्यों	-5470
बु	-5471
ालित	-5472
▁भ्र	-5473
Ex	-5474
▁कठिन	-5475
▁decided	-5476
▁products	-5477
pril	-5478
▁Rel	-5479
▁कने	-5480
▁mode	-5481
▁कविता	-5482
▁व्यक्तिगत	-5483
▁हवा	-5484
▁तुममें	-5485
let	-5486
कुल	-5487
duc	-5488
▁install	-5489
मैं	-5490
▁भगवान	-5491
▁ताल	-5492
ables	-5493
▁2015	-5494
isf	-5495
▁exec	-5496
▁तारीख	-5497
▁एज	-5498
▁ign	-5499
कालीन	-5500
haps	-5501
▁अंश	-5502
▁संत	-5503
औन	-5504
▁संस्कृत	-5505
▁West	-5506
ठी	-5507
ोजनों	-5508
▁laun	-5509
▁प्रणब	-5510
anskrit	-5511
▁Section	-5512
IL	-5513
▁revel	-5514
▁स्त्र	-5515
▁Fl	-5516
ivity	-5517
▁structure	-5518
uck	-5519
▁हिन्दी	-5520
▁युग	-5521
▁हालत	-5522
▁सित	-5523
▁lakh	-5524
▁eight	-5525
▁विचारों	-5526
सिद्ध	-5527
▁पहला	-5528
▁Jan	-5529
▁Project	-5530
स्वरूप	-5531
gn	-5532
▁Mem	-5533
ifest	-5534
▁cast	-5535
▁मतलब	-5536
▁require	-5537
ठित	-5538
▁Arab	-5539
▁hear	-5540
▁regist	-5541
▁निर्मित	-5542
▁Institute	-5543
▁संकेत	-5544
▁अर्थव्यवस्था	-5545
ब्र	-5546
▁Merciful	-5547
▁सम्मिल	-5548
▁conne	-5549
oud	-5550
▁Sabha	-5551
▁दुख	-5552
rences	-5553
▁private	-5554
erved	-5555
¤1	-5556
मीर	-5557
▁श्रेणीः	-5558
eb	-5559
▁draw	-5560
▁operation	-5561
ंगल	-5562
▁farmers	-5563
▁नो	-5564
▁pow	-5565
▁पहुंचा	-5566
▁places	-5567
▁संघर्ष	-5568
्वेष	-5569
▁projects	-5570
▁torment	-5571
▁ब्रिटिश	-5572
ban	-5573
▁विध	-5574
▁दिलों	-5575
anda	-5576
▁विफल	-5577
▁influ	-5578
rection	-5579
oly	-5580
endar	-5581
▁enem	-5582
▁apply	-5583
▁हिदायत	-5584
pecially	-5585
▁states	-5586
UR	-5587
▁official	-5588
▁अनुप्रयोग	-5589
▁सीख	-5590
ब्ल	-5591
▁Med	-5592
▁introdu	-5593
▁Tra	-5594
ney	-5595
रिया	-5596
▁परंपरा	-5597
▁signific	-5598
▁1961	-5599
II	-5600
▁East	-5601
▁district	-5602
▁(3)	-5603
▁Republic	-5604
▁investment	-5605
uary	-5606
▁foc	-5607
ager	-5608
▁भंडार	-5609
शय	-5610
▁अफ्री	-5611
▁astr	-5612
▁विरोध	-5613
दों	-5614
▁study	-5615
▁below	-5616
▁desire	-5617
▁SA	-5618
त्तर	-5619
▁फेर	-5620
▁वार्ष	-5621
▁कीमत	-5622
▁परिच	-5623
icated	-5624
igation	-5625
▁शताब्दी	-5626
वै	-5627
दर्शी	-5628
▁bit	-5629
▁तरफ़	-5630
▁समुद्र	-5631
▁आदर्श	-5632
-#-#	-5633
श्ले	-5634
▁जहन्नुम	-5635
nds	-5636
▁खास	-5637
▁issue	-5638
▁Budd	-5639
▁guard	-5640
▁करनेवालों	-5641
▁built	-5642
▁प्रवि	-5643
▁नागरिक	-5644
▁Work	-5645
▁emb	-5646
ades	-5647
well	-5648
▁किसानों	-5649
▁attack	-5650
▁forms	-5651
▁guide	-5652
▁इबराहीम	-5653
देव	-5654
▁failed	-5655
▁tour	-5656
वृत्ति	-5657
▁वैश्विक	-5658
▁अनुप	-5659
▁शाखा	-5660
▁World	-5661
▁music	-5662
",	-5663
अपने	-5664
▁page	-5665
▁अपील	-5666
▁South	-5667
▁rural	-5668
▁Pers	-5669
▁coming	-5670
सब	-5671
▁fulf	-5672
umn	-5673
▁approach	-5674
▁Jud	-5675
्राष्ट्रीय	-5676
म्म	-5677
▁बख	-5678
▁संशोधन	-5679
▁economy	-5680
▁friends	-5681
तया	-5682
▁pra	-5683
▁astray	-5684
▁From	-5685
▁Board	-5686
▁video	-5687
▁अत्यंत	-5688
इड	-5689
जनक	-5690
▁Every	-5691
▁carried	-5692
▁प्रतिष्ठ	-5693
स्कृतिक	-5694
▁अंग्रेजी	-5695
भूम	-5696
▁प्रदर्शित	-5697
▁meaning	-5698
lear	-5699
ेक्ट	-5700
▁शेष	-5701
▁नेता	-5702
▁फी	-5703
▁आंक	-5704
▁Pran	-5705
▁,	-5706
▁नसी	-5707
▁Rec	-5708
▁काट	-5709
▁Asia	-5710
▁महसूस	-5711
▁idea	-5712
app	-5713
▁dark	-5714
▁exchange	-5715
owed	-5716
▁produce	-5717
▁आंदोलन	-5718
▁पड़ता	-5719
ढ़ा	-5720
▁Off	-5721
▁tele	-5722
▁सच्चे	-5723
ales	-5724
मारी	-5725
▁reform	-5726
▁decision	-5727
▁guided	-5728
fo	-5729
▁मौजूदा	-5730
▁coop	-5731
▁April	-5732
▁id	-5733
▁Sur	-5734
▁weak	-5735
ici	-5736
िना	-5737
▁0.	-5738
▁लगाया	-5739
fficient	-5740
ियत	-5741
▁ड्र	-5742
▁improve	-5743
▁घट	-5744
▁bear	-5745
▁तेजी	-5746
▁जिम्मे	-5747
▁चलते	-5748
▁bound	-5749
▁issues	-5750
धर	-5751
▁मिट्टी	-5752
▁दृष्टिकोण	-5753
ल्ला	-5754
्रेड	-5755
▁देखें	-5756
▁situation	-5757
कात	-5758
▁शैतान	-5759
▁बुद्धि	-5760
▁prepared	-5761
▁led	-5762
▁कृत	-5763
▁चुनाव	-5764
हरे	-5765
▁Che	-5766
);	-5767
▁एव	-5768
amed	-5769
ार्म	-5770
ourage	-5771
▁एल	-5772
▁फैला	-5773
▁खुलती	-5774
▁निर्वा	-5775
▁provides	-5776
▁bill	-5777
▁निगम	-5778
तरा	-5779
agar	-5780
▁depos	-5781
दूसरे	-5782
▁Brah	-5783
▁da	-5784
▁happy	-5785
llah	-5786
▁अप्रैल	-5787
▁Pun	-5788
eral	-5789
▁King	-5790
▁quot	-5791
▁स्थायी	-5792
▁मुस्लिम	-5793
ोने	-5794
▁Pal	-5795
▁सम्मिलित	-5796
▁60	-5797
▁Ins	-5798
▁manufact	-5799
▁बढ़ाने	-5800
▁promise	-5801
िमी	-5802
▁rain	-5803
▁प्रयोजनों	-5804
▁सरल	-5805
▁Their	-5806
▁$	-5807
▁विवाह	-5808
▁relating	-5809
▁mom	-5810
▁चरण	-5811
▁rich	-5812
urance	-5813
vant	-5814
▁नये	-5815
▁defe	-5816
▁crop	-5817
▁विंडों	-5818
▁29	-5819
▁gir	-5820
▁बाव	-5821
▁सत्या	-5822
osop	-5823
▁महिलाओं	-5824
▁191	-5825
▁शक़	-5826
▁ways	-5827
▁विद्व	-5828
▁behalf	-5829
साब	-5830
ादी	-5831
▁रहेगा	-5832
लग्न	-5833
▁opportunity	-5834
▁secret	-5835
▁color	-5836
▁teach	-5837
▁Sanskrit	-5838
▁नोट	-5839
न्त्र	-5840
▁rules	-5841
▁मिस	-5842
estic	-5843
▁महत्त्व	-5844
ूँगा	-5845
▁strengthen	-5846
▁जाँच	-5847
▁Use	-5848
▁dig	-5849
▁room	-5850
▁इंडिया	-5851
▁physical	-5852
▁घोषणा	-5853
▁status	-5854
chan	-5855
परि	-5856
▁जोर	-5857
▁गंभीर	-5858
▁popular	-5859
▁disbelievers	-5860
mir	-5861
▁Gur	-5862
▁published	-5863
▁सदैव	-5864
▁groups	-5865
▁road	-5866
▁̈à	-5867
▁सॉ	-5868
▁2013	-5869
▁35	-5870
▁फे	-5871
▁2006	-5872
▁अभिलेख	-5873
▁especially	-5874
reg	-5875
▁Up	-5876
▁असा	-5877
▁लेखक	-5878
▁false	-5879
▁2007	-5880
▁कहेंगे	-5881
स्वी	-5882
▁फिल	-5883
ष्ट्र	-5884
iture	-5885
▁instrument	-5886
▁मार्च	-5887
भाषा	-5888
inion	-5889
्‍य	-5890
शाला	-5891
▁खुश	-5892
▁परिवर्त	-5893
भूमि	-5894
बले	-5895
▁CO	-5896
▁Technology	-5897
▁झग	-5898
▁तर्क	-5899
▁accord	-5900
▁शुल्क	-5901
▁जिसको	-5902
▁रहें	-5903
▁ग्राह	-5904
▁ste	-5905
▁लेता	-5906
▁ensure	-5907
adu	-5908
▁deb	-5909
▁प्रत्यक्ष	-5910
▁Educ	-5911
▁बढ़ावा	-5912
▁proceed	-5913
▁sens	-5914
▁wall	-5915
्यान्व	-5916
2,	-5917
▁values	-5918
▁हालाँकि	-5919
band	-5920
गिज़	-5921
▁Cert	-5922
▁आकाशों	-5923
cle	-5924
दाता	-5925
mark	-5926
▁prayer	-5927
▁whoever	-5928
प्ताह	-5929
▁subst	-5930
▁भूल	-5931
▁easy	-5932
aka	-5933
िकाओं	-5934
▁Pur	-5935
▁करी	-5936
▁Pranab	-5937
▁मिलने	-5938
▁भली	-5939
▁सज़ा	-5940
ढ़ी	-5941
▁Right	-5942
नियों	-5943
▁Chief	-5944
ूनी	-5945
body	-5946
▁अनुच्छेद	-5947
ilosop	-5948
▁satisf	-5949
aà	-5950
ev	-5951
नर	-5952
दना	-5953
▁इतनी	-5954
▁details	-5955
▁कार्यान्व	-5956
▁इनके	-5957
que	-5958
मर	-5959
ume	-5960
▁बीमा	-5961
▁Africa	-5962
▁cele	-5963
जीव	-5964
▁व्यय	-5965
▁break	-5966
▁अरब	-5967
▁conscious	-5968
▁crore	-5969
▁wrote	-5970
▁vict	-5971
▁निशानियाँ	-5972
ott	-5973
▁Mahar	-5974
▁सांस्कृतिक	-5975
▁instead	-5976
▁तकनीकी	-5977
नु	-5978
▁दायित्व	-5979
fort	-5980
▁मालिक	-5981
▁Account	-5982
▁besides	-5983
▁original	-5984
क्ष्म	-5985
▁Income	-5986
▁univers	-5987
'.	-5988
▁परिषद	-5989
▁देखो	-5990
▁जिनका	-5991
▁regular	-5992
mes	-5993
्रिया	-5994
▁2014	-5995
ितीय	-5996
▁टुक	-5997
jab	-5998
किल	-5999
ulate	-6000
▁giving	-6001
▁गाय	-6002
▁बनाई	-6003
head	-6004
▁गवाह	-6005
ंबई	-6006
▁वाता	-6007
▁forb	-6008
▁Def	-6009
aving	-6010
▁Have	-6011
▁began	-6012
▁Net	-6013
▁attend	-6014
asure	-6015
▁2016	-6016
▁unbelievers	-6017
▁evidence	-6018
▁दोष	-6019
▁Cons	-6020
ley	-6021
▁वस्तुओं	-6022
▁Child	-6023
▁river	-6024
▁becomes	-6025
्वाह	-6026
बाहरी	-6027
▁आपस	-6028
light	-6029
▁morning	-6030
▁lower	-6031
▁accepted	-6032
▁ख्या	-6033
यण	-6034
▁occur	-6035
▁खूब	-6036
ंटे	-6037
्यूशन	-6038
▁दिखाया	-6039
ंचे	-6040
ूंगा	-6041
▁घरों	-6042
▁पंजा	-6043
▁मेल	-6044
▁उपयुक्त	-6045
▁die	-6046
साद	-6047
▁सश	-6048
▁Leg	-6049
▁आसान	-6050
▁हाँ	-6051
▁रुपये	-6052
gar	-6053
▁पाक	-6054
▁letter	-6055
▁specific	-6056
oon	-6057
फार	-6058
▁पढ़ा	-6059
▁बौद्ध	-6060
▁Indust	-6061
▁rather	-6062
▁समाचार	-6063
hest	-6064
▁सामना	-6065
▁citizens	-6066
oe	-6067
▁bi	-6068
▁remind	-6069
RO	-6070
▁caused	-6071
do	-6072
▁Will	-6073
▁2005	-6074
एँगे	-6075
कृष्ट	-6076
एगा	-6077
▁बिजली	-6078
▁View	-6079
▁बुरी	-6080
▁प्राण	-6081
▁प्रसार	-6082
▁इंज	-6083
urrection	-6084
▁मस	-6085
oday	-6086
▁providing	-6087
दूर	-6088
▁बनाकर	-6089
▁dam	-6090
फ़ार	-6091
▁पात्र	-6092
▁सत्र	-6093
▁Christ	-6094
▁stage	-6095
irst	-6096
▁copy	-6097
▁अधिकतर	-6098
सभा	-6099
▁bad	-6100
▁feed	-6101
▁प्रतीक	-6102
▁concerned	-6103
▁increased	-6104
▁Har	-6105
▁else	-6106
▁जादू	-6107
▁load	-6108
▁अधिस	-6109
▁हालांकि	-6110
▁व्याख्या	-6111
ास्त्र	-6112
▁अंतरराष्ट्रीय	-6113
▁reached	-6114
▁हृदय	-6115
अल्लाह	-6116
▁अनुवाद	-6117
क्षेत्र	-6118
▁रोजगार	-6119
▁भय	-6120
▁fair	-6121
▁During	-6122
▁wanted	-6123
▁पाय	-6124
▁भरो	-6125
▁कार्र	-6126
▁सच्चा	-6127
▁wid	-6128
वृत्त	-6129
▁नसीहत	-6130
▁प्रेर	-6131
anation	-6132
▁names	-6133
▁कल्पना	-6134
▁बावजूद	-6135
▁Under	-6136
▁पत्थर	-6137
▁facilities	-6138
▁Ak	-6139
प्रिय	-6140
▁comb	-6141
".	-6142
तृत	-6143
itle	-6144
▁लोड	-6145
▁arri	-6146
▁दिये	-6147
▁measure	-6148
icro	-6149
▁पश्चात्	-6150
8.	-6151
▁नाटक	-6152
▁Secret	-6153
▁प्रयासों	-6154
खर	-6155
ites	-6156
iment	-6157
▁Category	-6158
▁fail	-6159
▁While	-6160
▁bey	-6161
▁खाद्य	-6162
▁वातावरण	-6163
▁अके	-6164
▁obt	-6165
abled	-6166
▁takes	-6167
▁answer	-6168
▁सिस्टम	-6169
▁क्षेत्रीय	-6170
▁मज़	-6171
etimes	-6172
▁Sm	-6173
▁infrastructure	-6174
ख़्श	-6175
▁camp	-6176
▁एच	-6177
भारत	-6178
osition	-6179
▁Why	-6180
▁Fore	-6181
▁clean	-6182
िफ	-6183
▁beyond	-6184
ras	-6185
▁getting	-6186
▁कठोर	-6187
ground	-6188
▁उत्तम	-6189
▁रेखा	-6190
ॉन	-6191
att	-6192
▁अवि	-6193
▁व्याव	-6194
kar	-6195
▁विस्तृत	-6196
ुमार	-6197
▁माह	-6198
▁prevent	-6199
▁4.	-6200
धानी	-6201
▁coll	-6202
▁नियुक्त	-6203
▁बुनिया	-6204
▁साझी	-6205
▁spend	-6206
▁अंध	-6207
▁स्वरूप	-6208
▁parents	-6209
▁cultural	-6210
▁International	-6211
rug	-6212
war	-6213
▁संदे	-6214
पास	-6215
▁पद्धति	-6216
▁manifest	-6217
▁Cre	-6218
▁त्व	-6219
▁simple	-6220
▁अधिकतम	-6221
▁Sign	-6222
▁heard	-6223
ATION	-6224
External	-6225
▁विनिर्दिष्ट	-6226
¤®	-6227
▁प्रभार	-6228
▁win	-6229
▁Dist	-6230
rog	-6231
▁shown	-6232
oice	-6233
▁फैस	-6234
▁mut	-6235
▁दीर्	-6236
▁Progr	-6237
ocation	-6238
▁justice	-6239
व्र	-6240
▁ऑन	-6241
▁bird	-6242
▁possess	-6243
▁belongs	-6244
▁शास	-6245
कामना	-6246
ervation	-6247
▁quite	-6248
▁चलता	-6249
▁फाय	-6250
▁aver	-6251
irm	-6252
▁appear	-6253
▁संस्करण	-6254
▁prescribed	-6255
▁संब	-6256
तृत्व	-6257
encies	-6258
▁unless	-6259
▁Ge	-6260
mbly	-6261
ober	-6262
▁जानवर	-6263
▁Service	-6264
▁Hereafter	-6265
9.	-6266
▁अधिसू	-6267
▁दीवार	-6268
.'	-6269
▁इजरा	-6270
▁शेयर	-6271
▁colle	-6272
▁thereof	-6273
▁prim	-6274
▁oil	-6275
▁expend	-6276
cend	-6277
▁March	-6278
▁programmes	-6279
▁मार्गदर्शन	-6280
ध्या	-6281
uction	-6282
▁emerg	-6283
▁forest	-6284
▁Save	-6285
▁माता	-6286
▁विमान	-6287
▁गहरा	-6288
▁Krish	-6289
वें	-6290
सों	-6291
▁प्लग	-6292
▁दोस्त	-6293
riage	-6294
चित्र	-6295
▁अस्प	-6296
ection	-6297
मल	-6298
▁शक्त	-6299
▁Ma	-6300
▁अनुसू	-6301
▁समक्ष	-6302
▁खोलें	-6303
▁पार्टी	-6304
▁पश्चिमी	-6305
बूल	-6306
▁आतंकवाद	-6307
िप्	-6308
▁Officer	-6309
▁अफ्रीका	-6310
▁Pak	-6311
▁ज़ु	-6312
▁नियत	-6313
vest	-6314
▁सबको	-6315
▁princi	-6316
कद	-6317
▁गुजरा	-6318
टिल	-6319
ष्क	-6320
▁स्वामी	-6321
reci	-6322
▁device	-6323
abor	-6324
▁मूल्या	-6325
▁अनुकूल	-6326
-2018	-6327
▁अक्सर	-6328
▁origin	-6329
जिए	-6330
▁central	-6331
''	-6332
▁सरक	-6333
▁डाटा	-6334
▁yourselves	-6335
▁निरंतर	-6336
▁importance	-6337
▁sky	-6338
▁ग्राम	-6339
▁song	-6340
ँव	-6341
द्धा	-6342
▁हार	-6343
▁बख्श	-6344
▁languages	-6345
cribe	-6346
▁Expl	-6347
▁responsible	-6348
▁प्रयुक्त	-6349
▁beginning	-6350
▁Val	-6351
ids	-6352
िक्री	-6353
▁prior	-6354
▁Commissioner	-6355
raw	-6356
▁patient	-6357
▁विनि	-6358
▁Guj	-6359
▁खाली	-6360
▁शुभकामना	-6361
▁prop	-6362
▁परिस्थित	-6363
▁understanding	-6364
▁felt	-6365
▁बॉ	-6366
▁North	-6367
▁knew	-6368
▁छिपा	-6369
▁कटौती	-6370
▁concer	-6371
▁क़यामत	-6372
▁परीक्षण	-6373
▁फा	-6374
▁मिलकर	-6375
वहन	-6376
▁placed	-6377
ट्र	-6378
▁खी	-6379
sect	-6380
▁तला	-6381
▁gone	-6382
▁चिह्न	-6383
▁परस्पर	-6384
▁सूक्ष्म	-6385
inn	-6386
resh	-6387
▁und	-6388
▁यंत्र	-6389
▁करनेवाला	-6390
7.	-6391
▁hor	-6392
▁मास	-6393
खिल	-6394
▁Gl	-6395
▁Hell	-6396
▁fort	-6397
▁संचार	-6398
▁अनुमान	-6399
बूद	-6400
▁Of	-6401
▁आये	-6402
▁मोड	-6403
▁returned	-6404
▁प्रसिद्ध	-6405
▁poin	-6406
▁Art	-6407
▁kill	-6408
▁ancient	-6409
▁Governor	-6410
▁एफ	-6411
▁deg	-6412
▁stone	-6413
▁mere	-6414
ressed	-6415
▁दर्शन	-6416
भाष	-6417
▁chast	-6418
)।	-6419
त्न	-6420
▁हाथों	-6421
▁password	-6422
▁राजन	-6423
▁Sam	-6424
▁Sim	-6425
▁disp	-6426
▁accounts	-6427
ुत्व	-6428
8,	-6429
न्ना	-6430
▁खड़ा	-6431
CC	-6432
त्‍	-6433
▁टाइ	-6434
▁appoint	-6435
EE	-6436
▁Other	-6437
▁स्पष्टीकरण	-6438
▁सज	-6439
▁goes	-6440
▁सम्प	-6441
bed	-6442
र्र	-6443
▁अवै	-6444
though	-6445
▁ge	-6446
▁सारा	-6447
किस्तान	-6448
्ति	-6449
▁effective	-6450
racy	-6451
▁मिशन	-6452
▁“%	-6453
्यार	-6454
▁ris	-6455
▁imag	-6456
▁प्रच	-6457
वासियों	-6458
▁प्रतिनिध	-6459
known	-6460
▁week	-6461
▁नामक	-6462
▁कितने	-6463
▁उपचार	-6464
▁रोज़ी	-6465
▁inform	-6466
▁coun	-6467
जु	-6468
ंखला	-6469
अपनी	-6470
▁burn	-6471
▁गतिविधियों	-6472
▁beaut	-6473
▁lies	-6474
▁नियमों	-6475
िज	-6476
This	-6477
elf	-6478
lict	-6479
▁कल्या	-6480
▁हिसाब	-6481
▁कार्ड	-6482
▁वार्षिक	-6483
▁agreement	-6484
▁learning	-6485
▁धा	-6486
anced	-6487
▁har	-6488
▁rivers	-6489
cer	-6490
▁मल	-6491
▁Director	-6492
ून्य	-6493
▁अना	-6494
¥	-6495
▁शिव	-6496
▁loan	-6497
▁schol	-6498
▁लिखने	-6499
▁वाह	-6500
▁der	-6501
▁Bal	-6502
▁सुझा	-6503
▁शुरुआ	-6504
where	-6505
▁नियमित	-6506
▁contribut	-6507
▁connection	-6508
▁nar	-6509
▁पैर	-6510
▁भौतिक	-6511
▁सकेगा	-6512
▁जीवित	-6513
▁वायदा	-6514
▁default	-6515
▁ago	-6516
▁emp	-6517
ST	-6518
▁treatment	-6519
▁aw	-6520
▁ideas	-6521
▁इन्हें	-6522
inate	-6523
▁संपूर्ण	-6524
▁आरो	-6525
▁समर्	-6526
▁परा	-6527
▁govern	-6528
▁मुसलमानों	-6529
▁heaven	-6530
▁Ac	-6531
▁उत्स	-6532
▁style	-6533
▁द्वार	-6534
▁engine	-6535
▁संलग्न	-6536
▁Lib	-6537
▁सचि	-6538
▁black	-6539
▁पूर्ववर्ष	-6540
▁Moh	-6541
▁स्वागत	-6542
iting	-6543
▁ग्रहण	-6544
▁celebr	-6545
▁mot	-6546
▁pie	-6547
ctors	-6548
▁Plan	-6549
▁setting	-6550
▁Education	-6551
बादत	-6552
ंका	-6553
▁Failed	-6554
▁strugg	-6555
लोड	-6556
▁Centre	-6557
▁notice	-6558
▁समस्याओं	-6559
ोकन	-6560
▁विश्ले	-6561
Laughter	-6562
▁spiritual	-6563
▁Many	-6564
▁philosop	-6565
▁आंत	-6566
▁क्लिक	-6567
▁vision	-6568
▁बंध	-6569
▁मानसिक	-6570
ताव	-6571
▁round	-6572
▁तमा	-6573
▁स्त्री	-6574
▁pict	-6575
▁offer	-6576
▁activity	-6577
▁अभिव्य	-6578
sy	-6579
यत	-6580
▁Gang	-6581
▁इत्या	-6582
▁सुंदर	-6583
ोल्यूशन	-6584
▁scale	-6585
▁लगाने	-6586
▁contract	-6587
▁कर्मचारियों	-6588
▁३	-6589
▁फ़ैस	-6590
ils	-6591
▁बजा	-6592
▁खाना	-6593
▁माँग	-6594
▁walk	-6595
▁Group	-6596
नेवालों	-6597
▁sle	-6598
▁Well	-6599
▁हिन्दू	-6600
▁histor	-6601
RA	-6602
▁Sup	-6603
▁बाहरी	-6604
▁collect	-6605
▁sn	-6606
▁क्रा	-6607
▁added	-6608
▁आकर्ष	-6609
▁व्यवसाय	-6610
EL	-6611
चीत	-6612
icles	-6613
▁हानि	-6614
▁करनेवाले	-6615
▁मंज	-6616
▁powers	-6617
छा	-6618
वाली	-6619
▁सवाल	-6620
▁सूर्य	-6621
ेंशन	-6622
भु	-6623
▁वेतन	-6624
▁article	-6625
▁servants	-6626
▁Forg	-6627
▁Pakistan	-6628
दिक	-6629
▁रौ	-6630
▁शिकायत	-6631
▁existing	-6632
▁Evolution	-6633
antly	-6634
▁moment	-6635
▁भला	-6636
▁born	-6637
▁ep	-6638
▁अंड	-6639
▁legal	-6640
▁मिलती	-6641
▁हिस्से	-6642
▁potential	-6643
पुट	-6644
क्ट्र	-6645
▁speech	-6646
ंकर	-6647
पान	-6648
▁खाने	-6649
oom	-6650
ायक	-6651
▁Move	-6652
▁youth	-6653
1.	-6654
▁अद	-6655
▁चैन	-6656
▁anal	-6657
▁ship	-6658
▁running	-6659
बरी	-6660
▁चम	-6661
▁basic	-6662
▁exerc	-6663
र्त	-6664
▁Sa	-6665
▁दावा	-6666
▁ब्रा	-6667
▁मात्र	-6668
▁Scheme	-6669
lt	-6670
▁sil	-6671
टेड	-6672
▁कथ	-6673
ropri	-6674
▁जिनकी	-6675
▁प्रजा	-6676
iff	-6677
▁systems	-6678
▁Quran	-6679
▁पुराने	-6680
▁ढूं	-6681
▁कितनी	-6682
▁भरोसा	-6683
ze	-6684
▁System	-6685
ंचाई	-6686
ियार	-6687
▁स्‍	-6688
▁बनाते	-6689
5.	-6690
▁आइ	-6691
▁उद	-6692
▁वर	-6693
▁lie	-6694
▁bond	-6695
▁unjust	-6696
ami	-6697
rem	-6698
▁fif	-6699
raham	-6700
▁देकर	-6701
▁धीरे	-6702
हि	-6703
haraoh	-6704
¤¤	-6705
amil	-6706
▁Air	-6707
▁चलो	-6708
▁बू	-6709
्यवाद	-6710
standing	-6711
ని	-6712
दिन	-6713
▁टन	-6714
▁tri	-6715
▁सर्वा	-6716
▁अवैध	-6717
▁direction	-6718
पों	-6719
▁पंक्ति	-6720
▁स्वच्छ	-6721
▁warm	-6722
णु	-6723
▁folk	-6724
वट	-6725
▁IS	-6726
▁खुशी	-6727
▁dream	-6728
▁कार्रवाई	-6729
▁Som	-6730
▁Unt	-6731
▁साम्रा	-6732
60	-6733
▁obey	-6734
▁poll	-6735
▁अद्य	-6736
set	-6737
ंता	-6738
▁cy	-6739
ancy	-6740
rate	-6741
▁विल	-6742
▁excell	-6743
▁उड़	-6744
▁Research	-6745
रेट	-6746
▁दीन	-6747
▁पाठ्य	-6748
▁हरगिज़	-6749
▁सदन	-6750
▁అ	-6751
▁existence	-6752
▁Ser	-6753
▁पंच	-6754
▁प्रेष	-6755
▁Out	-6756
▁sex	-6757
▁जाएं	-6758
▁बनाएँ	-6759
].	-6760
▁लम्	-6761
▁झुठलाया	-6762
▁content	-6763
ingu	-6764
▁पेज	-6765
▁presented	-6766
▁Bar	-6767
बारा	-6768
▁ब्रह	-6769
▁सप्ताह	-6770
AME	-6771
ero	-6772
▁कथा	-6773
▁unit	-6774
▁certificate	-6775
▁कल्याण	-6776
▁जायेगा	-6777
shi	-6778
▁मनो	-6779
▁pack	-6780
ंघ	-6781
nal	-6782
ृंखला	-6783
▁argu	-6784
▁पत्त	-6785
▁tried	-6786
▁Author	-6787
▁नेतृत्व	-6788
ules	-6789
▁swe	-6790
▁पीठ	-6791
▁Gard	-6792
▁उम्र	-6793
▁version	-6794
la	-6795
▁आँख	-6796
rick	-6797
▁virt	-6798
▁asset	-6799
▁phot	-6800
▁Today	-6801
▁ज़रुर	-6802
▁agricultural	-6803
char	-6804
▁proced	-6805
तिहासिक	-6806
▁animals	-6807
▁बातचीत	-6808
4.	-6809
▁मौसम	-6810
fect	-6811
▁white	-6812
▁plants	-6813
▁प्राप्ति	-6814
वक	-6815
▁भेजे	-6816
▁commer	-6817
▁फॉ	-6818
▁धो	-6819
▁दंड	-6820
▁favour	-6821
▁अंतर्राष्ट्रीय	-6822
▁female	-6823
▁looking	-6824
▁शुभकामनाएं	-6825
▁जनवरी	-6826
▁वितरण	-6827
7,	-6828
▁उपय	-6829
▁Dele	-6830
▁Kash	-6831
▁companies	-6832
ँति	-6833
▁आख	-6834
▁hus	-6835
▁इबादत	-6836
ulations	-6837
▁प्रावधान	-6838
▁प्रसन्नता	-6839
्ठा	-6840
icate	-6841
▁Just	-6842
▁concerning	-6843
्वे	-6844
▁मैने	-6845
▁निरा	-6846
दु	-6847
क्षेप	-6848
▁American	-6849
▁सहेजें	-6850
▁छुट	-6851
',	-6852
▁तौबा	-6853
uls	-6854
▁addition	-6855
▁कारबार	-6856
▁item	-6857
IR	-6858
▁खेती	-6859
▁employment	-6860
ule	-6861
▁plus	-6862
▁houses	-6863
▁sold	-6864
AY	-6865
▁बढ़कर	-6866
iva	-6867
view	-6868
▁कहता	-6869
▁Sar	-6870
▁Sch	-6871
▁प्रार्थ	-6872
▁आयोजन	-6873
▁safe	-6874
▁Therefore	-6875
ING	-6876
▁usually	-6877
▁immediately	-6878
road	-6879
▁fixed	-6880
▁contro	-6881
▁आयुक्त	-6882
▁parties	-6883
rant	-6884
▁aspect	-6885
▁option	-6886
▁संकल्प	-6887
rep	-6888
load	-6889
▁शख़्श	-6890
▁anyone	-6891
ML	-6892
▁generation	-6893
शब्द	-6894
▁जुड़े	-6895
▁remove	-6896
अलग	-6897
▁team	-6898
▁अनुमो	-6899
▁practice	-6900
3.	-6901
▁assign	-6902
oor	-6903
▁Punjab	-6904
▁प्रतिक्रिया	-6905
नांक	-6906
▁द्र	-6907
▁novel	-6908
▁formed	-6909
6.	-6910
ंसी	-6911
धीन	-6912
▁प्ले	-6913
▁हस्त	-6914
▁अभियान	-6915
▁mentioned	-6916
न्दगी	-6917
atures	-6918
▁जून	-6919
▁क्षति	-6920
▁produced	-6921
न्‍	-6922
लाल	-6923
▁कोड	-6924
▁दूध	-6925
oting	-6926
▁भलाई	-6927
poration	-6928
▁verses	-6929
ियोग	-6930
▁खुले	-6931
▁विवाद	-6932
▁Resurrection	-6933
▁symb	-6934
▁कार्यक्रमों	-6935
▁साब	-6936
▁प्रेरित	-6937
▁generally	-6938
TP	-6939
▁शून्य	-6940
cember	-6941
▁मुद्द	-6942
▁responsibility	-6943
पै	-6944
करी	-6945
ternet	-6946
ियल	-6947
▁माबूद	-6948
▁परियोजनाओं	-6949
▁यूनि	-6950
isement	-6951
▁चै	-6952
▁बोझ	-6953
▁;	-6954
▁Prof	-6955
▁होनी	-6956
▁जानी	-6957
▁forces	-6958
▁numbers	-6959
▁तट	-6960
जू	-6961
▁गरीब	-6962
▁Search	-6963
▁तिथि	-6964
▁limit	-6965
▁someone	-6966
▁दस्तावेज	-6967
▁associated	-6968
▁Cur	-6969
▁Utt	-6970
▁आपू	-6971
▁तरीका	-6972
oved	-6973
▁క	-6974
Ind	-6975
▁उसपर	-6976
▁बदलें	-6977
▁opportunities	-6978
वित्र	-6979
▁अमरी	-6980
▁अल्प	-6981
▁destroyed	-6982
ply	-6983
क्षी	-6984
▁Trib	-6985
▁sight	-6986
▁न्यून	-6987
▁अस्तित्व	-6988
ुमा	-6989
▁cove	-6990
▁serious	-6991
▁उपन्यास	-6992
▁गणराज्य	-6993
co	-6994
▁निभा	-6995
▁blind	-6996
▁फिल्म	-6997
▁medical	-6998
ाले	-6999
▁Kal	-7000
▁Pri	-7001
▁फ्ल	-7002
▁पत्नी	-7003
▁inside	-7004
वीय	-7005
▁{0}	-7006
वर्तन	-7007
▁base	-7008
▁देखभाल	-7009
रार	-7010
osing	-7011
▁आनंद	-7012
AB	-7013
porary	-7014
ogle	-7015
text	-7016
ईल	-7017
▁Ay	-7018
▁1961-2018	-7019
ूबर	-7020
omen	-7021
▁दयाल	-7022
▁Enter	-7023
▁cross	-7024
▁इत्यादि	-7025
▁कदा	-7026
Allah	-7027
त्मिक	-7028
▁पंचा	-7029
▁अनुसरण	-7030
▁desp	-7031
▁prosper	-7032
यम	-7033
मीटर	-7034
ength	-7035
▁wise	-7036
▁please	-7037
▁Dev	-7038
ching	-7039
ctober	-7040
▁milit	-7041
▁मूल्यांकन	-7042
▁प्रार्थना	-7043
▁190	-7044
▁एवोल्यूशन	-7045
▁active	-7046
▁हद	-7047
▁Ved	-7048
▁सुख	-7049
▁शत्र	-7050
▁2,	-7051
▁मध	-7052
▁feet	-7053
▁मुला	-7054
▁correct	-7055
वान्वेष	-7056
फ्र	-7057
लील	-7058
क्सी	-7059
▁Chair	-7060
▁ज़ुल्म	-7061
▁presence	-7062
ंटी	-7063
▁इतने	-7064
▁units	-7065
▁concept	-7066
ोम	-7067
▁तुर	-7068
शक्ति	-7069
▁करीब	-7070
▁हिंदू	-7071
-19	-7072
▁URL	-7073
oured	-7074
▁note	-7075
▁software	-7076
30	-7077
गण	-7078
▁According	-7079
▁सुबह	-7080
▁ID	-7081
▁चेह	-7082
▁award	-7083
▁कराने	-7084
▁अमेरिक	-7085
▁painful	-7086
▁statement	-7087
right	-7088
▁उत्कृष्ट	-7089
▁continued	-7090
▁green	-7091
▁Supreme	-7092
▁बजे	-7093
▁famous	-7094
ूक	-7095
▁Any	-7096
umbai	-7097
▁दिला	-7098
▁ख़र्च	-7099
▁mand	-7100
▁तकली	-7101
▁थोड़ा	-7102
▁इकट	-7103
दुनिया	-7104
लेज	-7105
vious	-7106
▁बदलाव	-7107
▁संस्थाओं	-7108
ho	-7109
▁.	-7110
etic	-7111
▁quick	-7112
▁wishes	-7113
मंडल	-7114
▁Tem	-7115
▁फूल	-7116
▁लक्षण	-7117
▁5.	-7118
▁multip	-7119
▁अत्यधिक	-7120
ाक	-7121
▁normal	-7122
▁workers	-7123
िक़	-7124
णिज्य	-7125
मार्	-7126
▁banks	-7127
▁perhaps	-7128
▁Mark	-7129
▁क़सम	-7130
▁increasing	-7131
arily	-7132
▁कुफ्	-7133
▁मीडिया	-7134
hib	-7135
▁Tw	-7136
श्मीर	-7137
▁कर्मचारी	-7138
▁directory	-7139
▁particularly	-7140
▁आठ	-7141
▁काफ़िर	-7142
▁traditional	-7143
▁बेटे	-7144
पादन	-7145
▁पट्टी	-7146
▁निर्देशिका	-7147
▁fra	-7148
▁आउट	-7149
▁शुद्ध	-7150
▁पर्यटन	-7151
▁Kashmir	-7152
िक्स	-7153
▁जहा	-7154
▁bow	-7155
▁खिलाफ	-7156
▁Yet	-7157
▁Conf	-7158
▁रास्ता	-7159
▁विशेषता	-7160
▁plug	-7161
▁ON	-7162
्याग	-7163
▁drug	-7164
▁stor	-7165
iverse	-7166
▁Legisl	-7167
▁attention	-7168
izing	-7169
▁Fund	-7170
▁पराम	-7171
▁मछ	-7172
▁तेज	-7173
▁fest	-7174
rim	-7175
▁माइ	-7176
▁fold	-7177
▁gold	-7178
▁बनने	-7179
▁मान्यता	-7180
▁लोगो	-7181
▁प्रयोजन	-7182
परिक	-7183
▁डरते	-7184
▁मुक़ा	-7185
▁बुनियादी	-7186
▁साधन	-7187
▁चारों	-7188
▁मिन	-7189
▁अंतरण	-7190
▁insect	-7191
▁changed	-7192
▁industries	-7193
▁गुरु	-7194
▁poetry	-7195
▁Islamic	-7196
▁ऐतिहासिक	-7197
▁पाकिस्तान	-7198
ानु	-7199
▁Asse	-7200
rows	-7201
▁Char	-7202
▁संगण	-7203
▁स्थिर	-7204
▁32	-7205
▁गैस	-7206
रक	-7207
म्मद	-7208
▁इरा	-7209
▁उदार	-7210
▁मामला	-7211
▁शुक्र	-7212
▁विद्युत	-7213
▁regarding	-7214
▁विद्यार्थियों	-7215
9,	-7216
ays	-7217
▁challeng	-7218
▁relationship	-7219
▁गुप्त	-7220
▁शीर्षक	-7221
▁successful	-7222
▁War	-7223
▁कमांड	-7224
▁स्क्रीन	-7225
vent	-7226
िकाना	-7227
▁Hy	-7228
मानी	-7229
▁fully	-7230
▁circum	-7231
▁forgiveness	-7232
▁आध्या	-7233
▁police	-7234
▁hours	-7235
▁worth	-7236
ुस	-7237
▁सुल	-7238
ovember	-7239
▁contains	-7240
▁includes	-7241
5)	-7242
▁tradition	-7243
▁2001	-7244
▁मानक	-7245
खिम	-7246
▁reb	-7247
▁game	-7248
र्ज	-7249
▁मंच	-7250
▁transport	-7251
EM	-7252
धीश	-7253
▁२००	-7254
घाटन	-7255
▁max	-7256
ially	-7257
▁नज़र	-7258
▁शुरुआत	-7259
miss	-7260
▁obl	-7261
▁फ़ॉ	-7262
▁नष्ट	-7263
क़यामत	-7264
▁purch	-7265
▁प्रोट	-7266
▁supply	-7267
▁travel	-7268
▁̄	-7269
▁आस्ति	-7270
aches	-7271
मान्य	-7272
▁film	-7273
▁मिटाएँ	-7274
▁तेरे	-7275
▁लाया	-7276
▁former	-7277
▁नवान्वेष	-7278
▁revelations	-7279
iling	-7280
▁इकाई	-7281
▁legisl	-7282
▁इजरायल	-7283
▁Explanation	-7284
AD	-7285
▁Sri	-7286
▁Only	-7287
▁लगातार	-7288
rav	-7289
dden	-7290
▁लोकप्रिय	-7291
ties	-7292
▁स्थानों	-7293
▁paper	-7294
▁प्रारूप	-7295
▁assistance	-7296
▁ख़ास	-7297
▁गंगा	-7298
asa	-7299
िनी	-7300
▁फसल	-7301
ecause	-7302
▁conce	-7303
iter	-7304
▁पूछा	-7305
▁पंचांग	-7306
▁beautiful	-7307
लोग	-7308
▁Red	-7309
▁moon	-7310
▁कक्ष	-7311
▁कौशल	-7312
▁greet	-7313
▁middle	-7314
▁Provided	-7315
▁memory	-7316
▁संबंधों	-7317
iet	-7318
ओगे	-7319
वां	-7320
▁autom	-7321
▁बिक्री	-7322
▁respond	-7323
IV	-7324
▁repe	-7325
▁cities	-7326
▁limited	-7327
▁विशेषज्ञ	-7328
▁विवे	-7329
▁किसान	-7330
▁strateg	-7331
itect	-7332
▁निशानी	-7333
▁लोकतंत्र	-7334
urt	-7335
धित	-7336
▁लु	-7337
▁साइ	-7338
▁स्थल	-7339
संख्या	-7340
▁बुराई	-7341
▁Mo	-7342
▁बेच	-7343
▁husband	-7344
▁बाह	-7345
▁Shah	-7346
▁कुशल	-7347
▁प्रचार	-7348
▁granted	-7349
▁Wise	-7350
▁types	-7351
iers	-7352
▁ख्याल	-7353
▁IT	-7354
▁सौंप	-7355
िश्तों	-7356
▁attempt	-7357
माने	-7358
▁Which	-7359
▁relevant	-7360
▁scientific	-7361
adise	-7362
▁Last	-7363
▁Wind	-7364
▁Start	-7365
▁वादा	-7366
▁select	-7367
▁severe	-7368
▁target	-7369
rid	-7370
मात्र	-7371
▁इंजीन	-7372
▁essential	-7373
▁hosp	-7374
▁minister	-7375
▁recommend	-7376
फ़र	-7377
जोर	-7378
▁घरे	-7379
▁बाँ	-7380
▁final	-7381
▁supported	-7382
rative	-7383
▁longer	-7384
▁Address	-7385
्वर	-7386
▁गल	-7387
▁स्तंभ	-7388
▁वाणिज्य	-7389
▁Ty	-7390
▁medic	-7391
▁बैंकों	-7392
amental	-7393
▁directly	-7394
शे	-7395
▁serve	-7396
▁दुआ	-7397
ini	-7398
top	-7399
▁सभ	-7400
▁भाषण	-7401
▁broad	-7402
▁आयतें	-7403
▁laid	-7404
▁छूट	-7405
▁petition	-7406
▁pred	-7407
SL	-7408
▁Pat	-7409
▁विरा	-7410
▁benefits	-7411
▁CD	-7412
▁अक्ष	-7413
▁किरा	-7414
▁काव्य	-7415
▁पढ़ने	-7416
▁Tag	-7417
▁मानो	-7418
▁session	-7419
In	-7420
▁Mal	-7421
▁नजर	-7422
CH	-7423
▁rad	-7424
▁dial	-7425
▁दूरी	-7426
ribute	-7427
▁ऑनलाइन	-7428
cutta	-7429
▁format	-7430
▁pattern	-7431
▁collection	-7432
▁sons	-7433
oted	-7434
utes	-7435
▁inj	-7436
▁ब्ल	-7437
▁विषयों	-7438
▁stories	-7439
▁ईमानदारों	-7440
▁accordance	-7441
▁माप	-7442
▁करार	-7443
▁सीधा	-7444
ैसे	-7445
cipal	-7446
▁निदेशक	-7447
▁jo	-7448
▁समी	-7449
▁adop	-7450
ateral	-7451
▁प्रभुत्व	-7452
▁agriculture	-7453
▁announ	-7454
▁Message	-7455
▁contribution	-7456
▁Ob	-7457
ptember	-7458
▁फ़ैसला	-7459
▁watch	-7460
▁consist	-7461
आन	-7462
▁Create	-7463
ipur	-7464
▁distin	-7465
कालिक	-7466
▁हराम	-7467
ellect	-7468
RI	-7469
▁Tur	-7470
क्षिक	-7471
▁ठिकाना	-7472
equ	-7473
▁cam	-7474
▁गोप	-7475
▁पुत्र	-7476
▁क़ा	-7477
verse	-7478
क्यों	-7479
▁January	-7480
▁villages	-7481
ae	-7482
जात	-7483
रणा	-7484
ॉकि	-7485
▁चीन	-7486
तुम्ह	-7487
▁संगठ	-7488
▁मिश्र	-7489
▁Uttar	-7490
avi	-7491
▁आश्च	-7492
▁तकनीक	-7493
▁आध्यात्मिक	-7494
asth	-7495
▁लेन	-7496
▁लॉग	-7497
▁रास्ते	-7498
▁expenditure	-7499
▁समस्त	-7500
uman	-7501
▁गृह	-7502
▁ध्वनि	-7503
▁दिनांक	-7504
▁వ	-7505
pper	-7506
▁जल्द	-7507
▁Truth	-7508
▁पहाड़	-7509
ँसी	-7510
▁तभी	-7511
▁Calcutta	-7512
▁फ़िर	-7513
▁ग़रज़	-7514
▁विज्ञ	-7515
▁नागरिकों	-7516
▁mountains	-7517
ुप	-7518
aug	-7519
लेट	-7520
cast	-7521
▁सामर्थ	-7522
▁एका	-7523
inite	-7524
▁apost	-7525
▁दूसरों	-7526
▁advance	-7527
▁संसाधनों	-7528
▁expression	-7529
क्रिय	-7530
▁Bang	-7531
▁परहे	-7532
▁जोखिम	-7533
▁नाट	-7534
▁विरो	-7535
ications	-7536
▁attract	-7537
▁male	-7538
▁बरसा	-7539
▁जितना	-7540
भेद	-7541
ugust	-7542
▁मज़ा	-7543
¥	-7544
▁टा	-7545
▁speed	-7546
▁एकत्र	-7547
▁प्रोत्साहन	-7548
व्या	-7549
ighty	-7550
▁कठिना	-7551
▁script	-7552
▁covered	-7553
▁न्यूनतम	-7554
▁HT	-7555
▁eye	-7556
▁इले	-7557
obile	-7558
▁उपयोक्ता	-7559
▁आज़	-7560
order	-7561
▁पवित्र	-7562
▁largest	-7563
यू	-7564
फ़ा	-7565
▁sacr	-7566
▁बजाय	-7567
▁आश्चर्य	-7568
वर्ड	-7569
▁अदा	-7570
▁card	-7571
▁thinking	-7572
5,	-7573
hab	-7574
र्वा	-7575
▁परहेज़	-7576
▁सेवाएं	-7577
▁administration	-7578
▁Adv	-7579
▁उतार	-7580
▁Tamil	-7581
apter	-7582
▁सिखा	-7583
▁separate	-7584
hent	-7585
▁रद्द	-7586
▁sufficient	-7587
▁2008	-7588
▁laws	-7589
▁standard	-7590
mp	-7591
▁ప	-7592
▁cells	-7593
▁असमर्थ	-7594
▁अर्थात्	-7595
▁ग्रंथ	-7596
▁अद्यतन	-7597
▁Sah	-7598
▁कितना	-7599
▁तस्वी	-7600
▁assets	-7601
▁स्त्रियों	-7602
▁पूजा	-7603
▁भागों	-7604
▁block	-7605
▁foot	-7606
▁आंतरिक	-7607
▁Pharaoh	-7608
▁हथ	-7609
▁जटिल	-7610
▁range	-7611
▁देखकर	-7612
▁complex	-7613
▁परामर्श	-7614
▁dy	-7615
▁esc	-7616
▁ढूंढ	-7617
▁प्रदू	-7618
▁opinion	-7619
डि	-7620
▁>	-7621
▁Lok	-7622
▁निपट	-7623
▁disci	-7624
▁आग्रह	-7625
▁Mumbai	-7626
▁threat	-7627
▁appropri	-7628
▁बीज	-7629
▁आसानी	-7630
▁अभिप्रे	-7631
विल	-7632
कड़ी	-7633
चलित	-7634
▁code	-7635
▁gods	-7636
▁shows	-7637
▁घरेलू	-7638
▁तीव्र	-7639
▁measures	-7640
नल	-7641
▁विजय	-7642
तल	-7643
लम	-7644
▁ज़्यादा	-7645
icit	-7646
▁दवा	-7647
▁cou	-7648
▁cooperation	-7649
▁(4)	-7650
▁Thou	-7651
న్	-7652
▁connected	-7653
ken	-7654
▁Folder	-7655
▁गीत	-7656
▁faces	-7657
▁multi	-7658
सायन	-7659
osis	-7660
▁2017	-7661
▁Organ	-7662
▁steps	-7663
▁समन्व	-7664
▁महत्त्वपूर्ण	-7665
ालत	-7666
▁नहर	-7667
▁प्रायः	-7668
▁बीमारी	-7669
ishn	-7670
▁पारित	-7671
▁denied	-7672
▁विनियम	-7673
▁straight	-7674
▁फोन	-7675
▁Inst	-7676
▁effort	-7677
▁opened	-7678
▁forgive	-7679
3,	-7680
िकल	-7681
िक्र	-7682
▁मंड	-7683
▁डाउन	-7684
OP	-7685
णों	-7686
▁सर्वे	-7687
▁Abraham	-7688
वायु	-7689
▁qual	-7690
▁mechan	-7691
▁गुमराही	-7692
दित	-7693
icial	-7694
▁sudden	-7695
▁Bas	-7696
▁prot	-7697
▁mental	-7698
▁Import	-7699
aken	-7700
▁Bab	-7701
▁relation	-7702
iance	-7703
add	-7704
apan	-7705
भाग्य	-7706
▁तथ्य	-7707
ऊँ	-7708
जब	-7709
▁sides	-7710
▁गवाही	-7711
▁मेहरबान	-7712
oo	-7713
hem	-7714
ड़ने	-7715
▁अन्तर्	-7716
It	-7717
ratic	-7718
्रांस	-7719
▁permission	-7720
▁नेहर	-7721
स्तियों	-7722
आप	-7723
▁promised	-7724
has	-7725
▁टिप्	-7726
▁Children	-7727
▁performance	-7728
▁परिस्थितियों	-7729
ps	-7730
▁शाह	-7731
▁तमाम	-7732
▁मुंबई	-7733
▁90	-7734
▁corru	-7735
▁मुझसे	-7736
▁वृक्ष	-7737
ॉक	-7738
▁occup	-7739
alty	-7740
ulpt	-7741
▁कहाँ	-7742
▁मुश्	-7743
▁highest	-7744
▁standing	-7745
▁Its	-7746
▁जाएंगे	-7747
म्स	-7748
▁amend	-7749
▁repent	-7750
▁चीज़ों	-7751
ेंड	-7752
▁pan	-7753
▁प्रि	-7754
▁polic	-7755
▁भागीदारी	-7756
▁dram	-7757
▁देखता	-7758
▁युक्त	-7759
▁Management	-7760
▁release	-7761
▁इंग	-7762
▁transgress	-7763
▁San	-7764
▁विधे	-7765
▁fruit	-7766
▁species	-7767
▁AND	-7768
▁कोल	-7769
MS	-7770
देन	-7771
ूसु	-7772
▁arrange	-7773
▁Tax	-7774
▁played	-7775
ालिब	-7776
▁Western	-7777
erous	-7778
▁Prin	-7779
▁भाषाओं	-7780
▁officers	-7781
लाद	-7782
▁आदम	-7783
▁focus	-7784
▁लड़के	-7785
▁लड़ाई	-7786
▁अका	-7787
▁milk	-7788
▁tool	-7789
विज्ञान	-7790
▁काग	-7791
▁ख़ुद	-7792
▁आवाज़	-7793
OL	-7794
ज़त	-7795
▁violence	-7796
hru	-7797
from	-7798
▁चलने	-7799
▁proof	-7800
▁stream	-7801
▁पृथ्वी	-7802
▁आपूर्ति	-7803
▁Messengers	-7804
▁Ker	-7805
pping	-7806
▁धन्यवाद	-7807
ను	-7808
▁fre	-7809
▁देवी	-7810
leg	-7811
ateful	-7812
▁ready	-7813
▁length	-7814
कीम	-7815
▁संचालन	-7816
कीन	-7817
िस्ट	-7818
▁रुपए	-7819
My	-7820
▁मई	-7821
▁protection	-7822
▁लंबा	-7823
▁First	-7824
▁अधिकारों	-7825
▁taste	-7826
▁academ	-7827
▁knowing	-7828
▁marriage	-7829
▁Forgiving	-7830
क़ी	-7831
board	-7832
▁pure	-7833
▁संकट	-7834
▁फैसला	-7835
▁संवर्	-7836
▁Because	-7837
लाभ	-7838
▁दृढ़	-7839
▁profess	-7840
शनल	-7841
rene	-7842
कर्ताओं	-7843
द्री	-7844
▁हालॉकि	-7845
▁nations	-7846
hra	-7847
▁upd	-7848
▁extent	-7849
▁sister	-7850
sc	-7851
▁north	-7852
▁documents	-7853
▁दशक	-7854
▁media	-7855
▁wills	-7856
▁export	-7857
xy	-7858
▁अन्दर	-7859
कारात्मक	-7860
icip	-7861
▁Copy	-7862
▁belief	-7863
▁calendar	-7864
OS	-7865
▁टीम	-7866
▁मस्ति	-7867
▁Bharat	-7868
▁उद्घाटन	-7869
▁लाइ	-7870
inent	-7871
ography	-7872
▁उपयोगी	-7873
रस	-7874
▁मोमि	-7875
\\	-7876
▁छह	-7877
परीत	-7878
भाँति	-7879
▁वैसे	-7880
▁joint	-7881
▁twenty	-7882
▁दयावान	-7883
▁अभिप्रेत	-7884
▁अगस्त	-7885
▁दीर्घ	-7886
▁leading	-7887
▁साम्राज्य	-7888
▁enemy	-7889
▁कानूनी	-7890
▁resident	-7891
6,	-7892
de	-7893
onse	-7894
▁hyp	-7895
▁बोले	-7896
▁बीमार	-7897
▁स्मृति	-7898
▁chastisement	-7899
▁balance	-7900
▁growing	-7901
▁journey	-7902
▁Jew	-7903
▁model	-7904
▁औरतों	-7905
द्या	-7906
▁cra	-7907
▁June	-7908
▁Port	-7909
▁democracy	-7910
App	-7911
arer	-7912
▁सिवाय	-7913
▁सर्वोच्च	-7914
▁cry	-7915
▁trying	-7916
डु	-7917
दीय	-7918
atha	-7919
वियों	-7920
▁सहकारी	-7921
▁PM	-7922
▁तुझे	-7923
▁appeal	-7924
▁entered	-7925
▁II	-7926
What	-7927
▁Sik	-7928
▁results	-7929
▁struggle	-7930
UT	-7931
▁Form	-7932
▁deemed	-7933
▁गुजरात	-7934
▁intellect	-7935
▁मां	-7936
▁पाते	-7937
▁items	-7938
▁advice	-7939
▁विपरीत	-7940
▁contain	-7941
fall	-7942
▁गठन	-7943
▁मीटर	-7944
▁गुज़र	-7945
▁बाबत	-7946
▁Inter	-7947
▁ज्ञापन	-7948
▁appl	-7949
▁China	-7950
▁chann	-7951
▁मैदान	-7952
▁संवाद	-7953
▁किनारे	-7954
▁December	-7955
▁included	-7956
PS	-7957
इल	-7958
ौल	-7959
ighb	-7960
▁chief	-7961
▁saved	-7962
इश	-7963
▁जरूर	-7964
▁सामर्थ्य	-7965
▁completed	-7966
▁मौत	-7967
▁offe	-7968
ression	-7969
▁useful	-7970
▁powerful	-7971
▁ज़ाह	-7972
▁height	-7973
▁ख़ूब	-7974
▁राज्यपाल	-7975
▁construction	-7976
▁मूर्ति	-7977
4,	-7978
And	-7979
▁config	-7980
▁implementation	-7981
▁एंड	-7982
▁पशु	-7983
▁स्वतः	-7984
▁पुस्तिका	-7985
▁नक़	-7986
▁Bill	-7987
▁rupe	-7988
▁तमिल	-7989
▁नैतिक	-7990
▁साबित	-7991
pty	-7992
▁नु	-7993
▁rail	-7994
▁named	-7995
ंगिक	-7996
▁ताप	-7997
▁सदा	-7998
▁कहान	-7999
ifying	-8000
▁द्वीप	-8001
▁otherwise	-8002
You	-8003
▁करवा	-8004
▁प्रका	-8005
▁Google	-8006
▁दयालुता	-8007
▁दस्तावेज़	-8008
yan	-8009
ंदी	-8010
भाषित	-8011
▁घोषित	-8012
oga	-8013
ously	-8014
▁विश्लेषण	-8015
शाह	-8016
▁won	-8017
▁तार	-8018
▁सूर	-8019
िव	-8020
hens	-8021
▁sins	-8022
▁मूर्	-8023
▁लिखी	-8024
asc	-8025
pir	-8026
▁Ann	-8027
enced	-8028
▁weight	-8029
pted	-8030
▁एकल	-8031
▁औष	-8032
▁2002	-8033
▁मुना	-8034
▁drive	-8035
▁न्यायाधीश	-8036
▁hour	-8037
▁शारी	-8038
▁Krishna	-8039
▁Vis	-8040
▁दरवा	-8041
▁होंगी	-8042
▁संबोधित	-8043
▁प्राथमिकता	-8044
वंश	-8045
athy	-8046
omin	-8047
▁Time	-8048
▁उत्पादों	-8049
शेष	-8050
▁खुला	-8051
ensive	-8052
▁south	-8053
▁चेतना	-8054
▁unique	-8055
्राफ	-8056
rance	-8057
▁Text	-8058
▁table	-8059
▁appreci	-8060
▁काफिर	-8061
▁questions	-8062
बाइल	-8063
महिम	-8064
▁hot	-8065
▁ton	-8066
▁शोध	-8067
क्षीय	-8068
▁उठाने	-8069
gy	-8070
गोल	-8071
▁centre	-8072
▁exceed	-8073
▁समृद्ध	-8074
▁प्रतिभा	-8075
▁Post	-8076
▁funds	-8077
▁convey	-8078
▁चुनौती	-8079
▁sometimes	-8080
▁revolution	-8081
▁झा	-8082
न्दी	-8083
▁नमू	-8084
▁rank	-8085
▁rise	-8086
▁rock	-8087
▁करेगी	-8088
▁रजि	-8089
olute	-8090
▁furn	-8091
▁doers	-8092
▁निर्वाचन	-8093
▁vac	-8094
▁वैध	-8095
▁जमीन	-8096
▁execut	-8097
▁figure	-8098
▁recent	-8099
▁जंग	-8100
▁जाकर	-8101
▁educational	-8102
He	-8103
▁तस	-8104
▁सॉफ्ट	-8105
▁Home	-8106
ferences	-8107
▁लाइन	-8108
▁लेंगे	-8109
tered	-8110
▁कॉन्	-8111
▁अनुरोध	-8112
▁frame	-8113
ilateral	-8114
▁()	-8115
ैर्य	-8116
▁चक्र	-8117
▁मिनट	-8118
aya	-8119
कभी	-8120
मिन	-8121
संगत	-8122
▁उतर	-8123
▁Gujarat	-8124
षक	-8125
▁अनुरूप	-8126
▁tal	-8127
▁Di	-8128
▁stock	-8129
▁वाद्य	-8130
▁आक्रमण	-8131
▁कलक	-8132
▁util	-8133
ula	-8134
▁काफ़ी	-8135
▁operations	-8136
▁emph	-8137
▁रीति	-8138
▁नृत्य	-8139
▁Indians	-8140
sp	-8141
▁Aud	-8142
odies	-8143
▁उत्सा	-8144
▁115	-8145
▁Agricult	-8146
pro	-8147
uff	-8148
▁ST	-8149
▁suc	-8150
▁कर्त	-8151
▁घंटे	-8152
assion	-8153
ops	-8154
ीनी	-8155
▁wo	-8156
▁UN	-8157
▁बुद्ध	-8158
▁प्रतिनिधित्व	-8159
▁यून	-8160
▁इंटरनेट	-8161
▁विन्यास	-8162
▁ग़ालिब	-8163
▁प्रतीत	-8164
▁Programm	-8165
▁employees	-8166
▁site	-8167
▁wood	-8168
▁apart	-8169
▁minus	-8170
घात	-8171
यदि	-8172
वाना	-8173
▁भेद	-8174
फारिश	-8175
▁imper	-8176
▁labour	-8177
▁अज्ञात	-8178
▁functions	-8179
▁significant	-8180
under	-8181
▁Policy	-8182
मेन	-8183
▁̄à	-8184
त्कार	-8185
▁dwell	-8186
▁हिंदी	-8187
▁Assist	-8188
▁जनसंख्या	-8189
▁calc	-8190
▁situ	-8191
If	-8192
कालय	-8193
दत्त	-8194
▁Back	-8195
▁Pra	-8196
▁helped	-8197
▁neighb	-8198
▁pursu	-8199
▁circumst	-8200
:-	-8201
ask	-8202
ंजन	-8203
▁Ah	-8204
▁हिम	-8205
लोगों	-8206
▁needed	-8207
lex	-8208
▁सरकारों	-8209
▁Langu	-8210
▁pleasure	-8211
▁जाओगे	-8212
▁secure	-8213
atically	-8214
1,	-8215
▁निरी	-8216
▁Image	-8217
▁track	-8218
▁dece	-8219
▁heavy	-8220
▁जिनको	-8221
▁महामहिम	-8222
▁miss	-8223
▁वहीं	-8224
▁परिणामस्वरूप	-8225
▁Inc	-8226
▁ख्वाह	-8227
▁October	-8228
▁Sol	-8229
▁Finance	-8230
▁75	-8231
▁साफ़	-8232
▁त्याग	-8233
▁शिकार	-8234
▁extreme	-8235
▁शारीरिक	-8236
▁Sal	-8237
▁क़ि	-8238
▁अमेरिकी	-8239
▁involved	-8240
▁सर्वेक्षण	-8241
▁Dh	-8242
▁images	-8243
▁अध्याय	-8244
▁join	-8245
▁परेश	-8246
▁famil	-8247
▁नेहरू	-8248
▁Unable	-8249
▁fathers	-8250
▁उपबंधों	-8251
▁राजनैतिक	-8252
▁mid	-8253
▁नयी	-8254
स्त्र	-8255
▁दर्ज	-8256
▁ज़िम्मे	-8257
▁इलेक्ट्र	-8258
box	-8259
roud	-8260
▁Bomb	-8261
▁आनन्द	-8262
▁वर्षा	-8263
▁leaves	-8264
▁जलवायु	-8265
▁प्रशंसा	-8266
▁कृष्ण	-8267
▁प्रिय	-8268
▁01	-8269
▁कोवि	-8270
▁प्रेरणा	-8271
वली	-8272
▁हल्	-8273
▁आरम्भ	-8274
▁located	-8275
▁मेन	-8276
▁grace	-8277
▁सर्वाधिक	-8278
र्रर	-8279
▁More	-8280
▁बदलने	-8281
▁सरदार	-8282
▁समझौता	-8283
▁सिफारिश	-8284
.2014	-8285
▁trees	-8286
AM	-8287
▁Law	-8288
▁पलट	-8289
▁2012	-8290
▁perman	-8291
▁वचन	-8292
▁territ	-8293
▁ऑफ़	-8294
▁औसत	-8295
बन्धी	-8296
▁पोर्ट	-8297
▁events	-8298
▁leader	-8299
▁विद्यमान	-8300
▁एकता	-8301
▁पहुँचे	-8302
फ़्र	-8303
stituted	-8304
▁प्रकाशन	-8305
Com	-8306
▁लौटा	-8307
▁developing	-8308
▁Power	-8309
▁temper	-8310
▁संगठनों	-8311
enge	-8312
▁अस्थ	-8313
▁सड़क	-8314
▁पूर्वी	-8315
ది	-8316
▁शहरी	-8317
▁शास्त	-8318
▁मुक़ाबले	-8319
▁Po	-8320
▁Ur	-8321
▁पाई	-8322
▁Pass	-8323
▁बन्दगी	-8324
ashtra	-8325
्लो	-8326
▁आओ	-8327
▁सशक्त	-8328
▁यक़ीनी	-8329
▁Hist	-8330
▁staff	-8331
▁storage	-8332
▁मुश्किल	-8333
0.	-8334
▁अत	-8335
uled	-8336
ष्टा	-8337
▁डाले	-8338
▁architect	-8339
like	-8340
शासन	-8341
▁क़ु	-8342
▁धैर्य	-8343
▁Script	-8344
▁schemes	-8345
▁कूटशब्द	-8346
▁committed	-8347
अर	-8348
▁नेक	-8349
▁परम	-8350
▁पूर्वा	-8351
▁gardens	-8352
▁consideration	-8353
▁खुली	-8354
▁valid	-8355
▁mighty	-8356
▁Science	-8357
▁consequ	-8358
▁नूह	-8359
▁पंजाब	-8360
केट	-8361
▁पॉ	-8362
▁seems	-8363
▁छात्रों	-8364
▁जय	-8365
▁lived	-8366
दरत	-8367
aters	-8368
▁Assembly	-8369
▁facilit	-8370
▁उपभोक्ता	-8371
▁1999	-8372
▁अक्षम	-8373
ET	-8374
▁189	-8375
▁जागर	-8376
▁देर	-8377
▁families	-8378
▁stated	-8379
▁technical	-8380
iled	-8381
▁किलो	-8382
ipt	-8383
▁Over	-8384
▁choose	-8385
▁likely	-8386
▁reading	-8387
resp	-8388
▁उपक्रम	-8389
▁समाप्ति	-8390
जिस	-8391
▁box	-8392
▁seem	-8393
▁आवास	-8394
▁cloud	-8395
▁अस्था	-8396
▁Remove	-8397
▁engaged	-8398
बीर	-8399
लीय	-8400
▁अहम	-8401
▁refuge	-8402
▁happened	-8403
aker	-8404
cher	-8405
▁capt	-8406
▁Nehru	-8407
▁adopted	-8408
▁domestic	-8409
▁response	-8410
▁श्रृंखला	-8411
rust	-8412
▁दाह	-8413
ruary	-8414
ूदी	-8415
▁उठाए	-8416
umber	-8417
▁शुरु	-8418
▁causes	-8419
पथ	-8420
omet	-8421
▁प्रत	-8422
▁आसपास	-8423
▁Contact	-8424
ंठ	-8425
itch	-8426
त्तम	-8427
▁पड़ी	-8428
▁shape	-8429
▁आज्ञा	-8430
▁average	-8431
▁military	-8432
▁डाय	-8433
▁उधार	-8434
▁looked	-8435
▁symbol	-8436
▁मुद्दों	-8437
▁अज	-8438
▁Ear	-8439
▁टेली	-8440
▁animal	-8441
lands	-8442
▁gain	-8443
▁जिनसे	-8444
▁प्रतीक्षा	-8445
थे	-8446
▁188	-8447
▁गौर	-8448
▁scholars	-8449
▁उद्योगों	-8450
ao	-8451
गढ़	-8452
ॉलर	-8453
▁जेल	-8454
▁lines	-8455
ebruary	-8456
▁exists	-8457
▁divided	-8458
▁hearing	-8459
चानक	-8460
▁email	-8461
▁निहित	-8462
▁contained	-8463
mer	-8464
▁SAW	-8465
itled	-8466
pense	-8467
▁निगर	-8468
▁साथी	-8469
▁पसन्द	-8470
▁कब	-8471
▁2020	-8472
▁आबाद	-8473
▁fields	-8474
▁sculpt	-8475
▁बिलकुल	-8476
▁सजा	-8477
inery	-8478
▁हैंः	-8479
▁उठाया	-8480
ora	-8481
▁तल	-8482
▁सृजन	-8483
▁इन्कार	-8484
ंदु	-8485
asons	-8486
▁September	-8487
iry	-8488
▁धु	-8489
▁Delete	-8490
▁Excell	-8491
▁taught	-8492
▁अर्थात	-8493
▁consult	-8494
▁declared	-8495
▁प्राधिकारी	-8496
osen	-8497
▁gets	-8498
▁लगते	-8499
▁appropriate	-8500
▁fit	-8501
nding	-8502
▁चुने	-8503
▁लिखित	-8504
▁Office	-8505
▁temples	-8506
▁extra	-8507
▁truly	-8508
▁ज़िन्दगी	-8509
▁हमसे	-8510
fection	-8511
ष्‍	-8512
▁स्ना	-8513
▁पंजीकरण	-8514
pid	-8515
ज़ल	-8516
ित्त	-8517
▁depart	-8518
▁policies	-8519
तीत	-8520
▁नबी	-8521
oming	-8522
▁मस्तिष्क	-8523
▁पति	-8524
▁फें	-8525
▁फोट	-8526
▁Path	-8527
▁didn	-8528
▁magn	-8529
▁Bombay	-8530
▁Secretary	-8531
ray	-8532
aging	-8533
▁perfect	-8534
ंडी	-8535
ktop	-8536
▁आना	-8537
▁entry	-8538
▁हत्या	-8539
▁promote	-8540
क़्त	-8541
▁सहज	-8542
▁निकाय	-8543
lly	-8544
urg	-8545
▁column	-8546
▁difference	-8547
▁प्रोत्साहित	-8548
प्रति	-8549
शीलता	-8550
▁disob	-8551
▁November	-8552
▁कार्यान्वयन	-8553
िड	-8554
▁6.	-8555
▁गणना	-8556
▁किस्म	-8557
▁praise	-8558
▁amongst	-8559
▁portion	-8560
▁पाठ्यक्रम	-8561
सायिक	-8562
▁इसको	-8563
▁Car	-8564
▁web	-8565
lying	-8566
▁ball	-8567
▁मुद्र	-8568
▁worked	-8569
▁तस्वीर	-8570
▁Bus	-8571
▁सिक्	-8572
reprene	-8573
▁machine	-8574
▁officer	-8575
▁आकर	-8576
▁घटा	-8577
▁अचानक	-8578
ests	-8579
▁अगला	-8580
▁touch	-8581
▁समझने	-8582
▁succeed	-8583
▁processing	-8584
▁बाग	-8585
▁Pand	-8586
▁मिलेगा	-8587
▁payable	-8588
▁commercial	-8589
▁registered	-8590
थी	-8591
race	-8592
rain	-8593
▁हवाई	-8594
प्ति	-8595
▁nuc	-8596
▁Head	-8597
▁अधिसूचना	-8598
▁influence	-8599
▁एड	-8600
▁Nep	-8601
▁आंख	-8602
▁सोचा	-8603
▁review	-8604
▁dance	-8605
▁divine	-8606
రి	-8607
रात	-8608
▁आश	-8609
▁seed	-8610
▁साझा	-8611
▁emphas	-8612
▁उच्चतम	-8613
▁gar	-8614
▁नुक	-8615
▁earn	-8616
▁magic	-8617
▁raise	-8618
▁profit	-8619
▁reference	-8620
▁Edit	-8621
▁risk	-8622
▁सुविधाओं	-8623
ti	-8624
ड़ते	-8625
▁शैक्षिक	-8626
अत	-8627
▁చ	-8628
sec	-8629
धों	-8630
▁voice	-8631
कुछ	-8632
श्रम	-8633
ैनिक	-8634
▁चिंता	-8635
▁fish	-8636
▁परिवहन	-8637
▁डाउनलोड	-8638
llig	-8639
▁withd	-8640
अमत	-8641
▁waste	-8642
▁fruits	-8643
aur	-8644
ंदन	-8645
▁नवीन	-8646
▁square	-8647
▁surface	-8648
▁Her	-8649
▁Ret	-8650
ought	-8651
utions	-8652
▁Nath	-8653
▁औलाद	-8654
▁सराह	-8655
▁Stand	-8656
▁pil	-8657
▁छाप	-8658
चारिक	-8659
rehens	-8660
▁veget	-8661
▁स्मार	-8662
▁online	-8663
▁external	-8664
AC	-8665
▁gather	-8666
▁killed	-8667
ams	-8668
ounty	-8669
▁इसरा	-8670
▁सुभाष	-8671
▁सन्तान	-8672
न्ड	-8673
क्ष्य	-8674
▁fill	-8675
▁निगरानी	-8676
▁incl	-8677
▁श्रम	-8678
ube	-8679
rated	-8680
▁compon	-8681
▁shares	-8682
समय	-8683
▁आलो	-8684
▁जैव	-8685
▁सें	-8686
▁तूने	-8687
▁यूसु	-8688
पालिका	-8689
दंड	-8690
ंपरिक	-8691
▁इसने	-8692
▁Satan	-8693
▁ज़ाहिर	-8694
ole	-8695
▁expand	-8696
▁deduction	-8697
ेंज	-8698
▁सै	-8699
▁मस्	-8700
▁dang	-8701
▁happen	-8702
▁परिवर्तित	-8703
िफ़	-8704
▁skin	-8705
▁circumstances	-8706
▁Enable	-8707
ाये	-8708
▁graph	-8709
▁master	-8710
▁ourselves	-8711
arma	-8712
▁देखना	-8713
▁August	-8714
▁worshi	-8715
adh	-8716
inet	-8717
▁wel	-8718
ented	-8719
▁calls	-8720
▁अन्यथा	-8721
▁ईमानदार	-8722
▁impact	-8723
▁क़ुरान	-8724
▁Exchange	-8725
टेन	-8726
▁quar	-8727
संस्	-8728
-0	-8729
▁tid	-8730
icked	-8731
▁expressed	-8732
▁consciousness	-8733
▁pric	-8734
▁पेंशन	-8735
▁चो	-8736
▁standards	-8737
▁जनजा	-8738
ुस्तान	-8739
▁Check	-8740
▁mouth	-8741
▁शहरों	-8742
▁कार्यवाही	-8743
▁profession	-8744
▁died	-8745
▁excl	-8746
▁quant	-8747
▁सेटिंग	-8748
▁desires	-8749
▁remained	-8750
▁input	-8751
▁attach	-8752
▁AT	-8753
▁saf	-8754
▁कॉल	-8755
▁Germ	-8756
▁levels	-8757
▁समर्पित	-8758
▁समीक्षा	-8759
▁interests	-8760
दास	-8761
र्ती	-8762
▁Nay	-8763
▁joy	-8764
mical	-8765
▁remark	-8766
Mu	-8767
uel	-8768
▁resol	-8769
▁सचे	-8770
▁घड़ी	-8771
▁लाते	-8772
▁विरोधी	-8773
मोह	-8774
▁सुझाव	-8775
▁कनेक्शन	-8776
▁location	-8777
unk	-8778
▁remains	-8779
▁संयंत्र	-8780
टो	-8781
uous	-8782
▁चालू	-8783
▁परमाण	-8784
▁messengers	-8785
▁लंबे	-8786
▁convers	-8787
▁terrorism	-8788
▁lack	-8789
▁खींच	-8790
▁ignor	-8791
▁बिहार	-8792
▁variety	-8793
aign	-8794
▁proud	-8795
iny	-8796
क़ा	-8797
▁नक़ल	-8798
▁print	-8799
▁रेलवे	-8800
ठे	-8801
aja	-8802
ड़ियों	-8803
▁पूज्य	-8804
▁शिखर	-8805
▁Japan	-8806
Appl	-8807
▁चढ़	-8808
▁Paradise	-8809
▁कंपनियों	-8810
▁additional	-8811
्यूट	-8812
▁लिंक	-8813
▁रोकने	-8814
क़रीब	-8815
▁बहुते	-8816
▁enable	-8817
▁लै	-8818
▁शान	-8819
verty	-8820
गारों	-8821
▁Gandhiji	-8822
▁सॉफ्टवेयर	-8823
▁Description	-8824
▁बटन	-8825
Applause	-8826
जल	-8827
▁शौ	-8828
▁cop	-8829
▁Unto	-8830
▁store	-8831
▁interp	-8832
▁refers	-8833
grat	-8834
▁500	-8835
▁dated	-8836
▁sleep	-8837
ESS	-8838
▁avoid	-8839
▁poverty	-8840
స్	-8841
ंटर	-8842
▁गोल	-8843
▁Palest	-8844
▁listen	-8845
▁series	-8846
▁विधेयक	-8847
oms	-8848
▁elements	-8849
▁teachers	-8850
nes	-8851
▁केरल	-8852
▁जिले	-8853
▁Bihar	-8854
▁School	-8855
▁प्रारंभिक	-8856
▁egg	-8857
▁कोशिका	-8858
▁कलकत्ता	-8859
ुक्ति	-8860
▁Great	-8861
▁trial	-8862
▁constitution	-8863
apt	-8864
ading	-8865
▁इनका	-8866
▁फिरऔन	-8867
▁extended	-8868
▁होम	-8869
▁fine	-8870
▁forget	-8871
▁rejected	-8872
usive	-8873
▁देखे	-8874
▁रहमत	-8875
▁spent	-8876
AG	-8877
atma	-8878
▁धारण	-8879
▁Kerala	-8880
atter	-8881
▁मांस	-8882
▁advant	-8883
▁larger	-8884
▁Nar	-8885
न्द्रनाथ	-8886
शास्त्र	-8887
▁इकट्ठा	-8888
▁नुकसान	-8889
▁Comment	-8890
▁maintain	-8891
▁Roy	-8892
▁Web	-8893
▁unf	-8894
मार्ग	-8895
▁sort	-8896
▁brings	-8897
▁af	-8898
▁जरिए	-8899
▁मुद्	-8900
▁सचिव	-8901
▁समग्र	-8902
▁Also	-8903
▁चुनौ	-8904
मतौर	-8905
▁उपा	-8906
▁उत्तरा	-8907
▁मोबाइल	-8908
▁राजनीति	-8909
▁distance	-8910
▁partnership	-8911
▁3,	-8912
▁गें	-8913
hered	-8914
▁moving	-8915
▁settle	-8916
▁hospital	-8917
▁महाराष्ट्र	-8918
ेरत	-8919
▁बग	-8920
▁sup	-8921
▁पृष्ठभूमि	-8922
मेट	-8923
चालित	-8924
▁सुदृ	-8925
▁पुरानी	-8926
▁Knowing	-8927
▁evening	-8928
▁मूल्यों	-8929
iring	-8930
▁reflect	-8931
▁श्रेष्ठ	-8932
पार	-8933
▁cat	-8934
विधि	-8935
िकेट	-8936
▁unc	-8937
▁अकबर	-8938
ंत्रिक	-8939
▁chosen	-8940
Muhammad	-8941
▁distribution	-8942
▁Inf	-8943
▁सूत्र	-8944
▁नेताओं	-8945
▁Did	-8946
▁गुफा	-8947
istics	-8948
▁medium	-8949
▁चलाने	-8950
▁मिसाल	-8951
▁described	-8952
एच	-8953
▁wives	-8954
वधि	-8955
▁सौर	-8956
▁ग्राहक	-8957
▁Chairman	-8958
▁पारंपरिक	-8959
▁५	-8960
lick	-8961
▁July	-8962
▁पेड़	-8963
▁अनुदान	-8964
न्या	-8965
ोबार	-8966
▁तिर	-8967
▁मौल	-8968
▁hell	-8969
▁आराम	-8970
▁मॉडल	-8971
▁हार्	-8972
▁clearly	-8973
▁feeling	-8974
▁poly	-8975
▁Conference	-8976
▁Corporation	-8977
unal	-8978
▁शिश	-8979
▁अभिव्यक्ति	-8980
▁2019	-8981
▁रौशन	-8982
▁जुलाई	-8983
actions	-8984
▁आकर्षित	-8985
▁expected	-8986
DE	-8987
कां	-8988
ague	-8989
▁तथापि	-8990
▁prefer	-8991
▁screen	-8992
▁मुक़र्रर	-8993
▁देय	-8994
▁Send	-8995
▁plain	-8996
▁construct	-8997
ja	-8998
ॉट	-8999
नाह	-9000
anas	-9001
eties	-9002
▁मर्द	-9003
मियान	-9004
▁नंबर	-9005
ologies	-9006
म्मत	-9007
▁earned	-9008
▁context	-9009
नाश	-9010
▁70	-9011
▁Fil	-9012
▁टैग	-9013
▁cash	-9014
▁क़ाय	-9015
▁विभाजन	-9016
▁learned	-9017
▁Att	-9018
overy	-9019
▁grand	-9020
▁inaug	-9021
▁sectors	-9022
▁नियंत्रित	-9023
aling	-9024
uries	-9025
▁बाकी	-9026
asthan	-9027
”.	-9028
क्रो	-9029
▁Det	-9030
▁आवाज	-9031
▁जर्म	-9032
▁भेजें	-9033
ception	-9034
▁brothers	-9035
वण	-9036
aji	-9037
▁root	-9038
▁दिखाता	-9039
▁प्रयत्न	-9040
रत	-9041
▁Nob	-9042
▁Sir	-9043
▁निच	-9044
▁सिल	-9045
▁crops	-9046
▁अनुपात	-9047
▁ज्ञात	-9048
▁निष्क्रिय	-9049
▁36	-9050
ष्ठा	-9051
itial	-9052
ार्थी	-9053
▁pill	-9054
▁kinds	-9055
era	-9056
▁शरीक	-9057
।-	-9058
द्वीप	-9059
▁Turk	-9060
erative	-9061
▁कीट	-9062
anges	-9063
▁महात्मा	-9064
▁whosoever	-9065
ायी	-9066
▁IP	-9067
▁”-	-9068
िप्त	-9069
▁goal	-9070
▁जानने	-9071
▁fellow	-9072
▁उत्तरी	-9073
▁exercise	-9074
▁rare	-9075
▁ईमेल	-9076
ेय	-9077
▁४	-9078
{0}	-9079
ोजी	-9080
nded	-9081
▁Soci	-9082
▁vast	-9083
▁Buddh	-9084
▁आमतौर	-9085
▁Inte	-9086
▁prem	-9087
प्राप्त	-9088
▁opening	-9089
▁objective	-9090
▁अफ़	-9091
▁कदापि	-9092
▁घटनाओं	-9093
.%	-9094
मै	-9095
▁मं	-9096
▁stead	-9097
▁hidden	-9098
▁deliver	-9099
▁element	-9100
▁launched	-9101
▁चू	-9102
▁करोगे	-9103
▁abroad	-9104
▁studies	-9105
▁throughout	-9106
▁independence	-9107
गामी	-9108
▁कैसा	-9109
▁defined	-9110
▁schools	-9111
▁“”	-9112
लिया	-9113
▁मुश	-9114
▁observed	-9115
▁7.	-9116
ousing	-9117
▁myself	-9118
▁output	-9119
▁applications	-9120
शुदा	-9121
▁Emp	-9122
▁majority	-9123
For	-9124
भ्र	-9125
▁opt	-9126
ivered	-9127
▁अपमान	-9128
▁cattle	-9129
▁द्वितीय	-9130
olid	-9131
ेंद्र	-9132
▁door	-9133
▁beauty	-9134
▁Guru	-9135
▁homes	-9136
▁determined	-9137
gen	-9138
▁सफ	-9139
cript	-9140
▁prec	-9141
▁borrow	-9142
▁safety	-9143
▁electric	-9144
icense	-9145
▁cultiv	-9146
▁जोड़ने	-9147
▁दरमियान	-9148
▁विशेषकर	-9149
ర్	-9150
idy	-9151
ifice	-9152
▁योजनाओं	-9153
▁European	-9154
▁Free	-9155
▁Elect	-9156
▁remem	-9157
▁Applic	-9158
▁प्राधिकरण	-9159
ocal	-9160
▁Pan	-9161
▁खान	-9162
▁dust	-9163
▁turns	-9164
▁mutual	-9165
▁Maharashtra	-9166
▁bed	-9167
▁trou	-9168
▁युक्ति	-9169
▁मुलाकात	-9170
▁बढ़ती	-9171
▁wonder	-9172
▁आमंत्र	-9173
▁everyone	-9174
▁विश्वविद्यालयों	-9175
▁Iran	-9176
▁associate	-9177
UN	-9178
कर्ष	-9179
भाविक	-9180
ियामत	-9181
▁button	-9182
▁characters	-9183
▁नाथ	-9184
▁Bhag	-9185
▁girl	-9186
▁remote	-9187
▁greatest	-9188
ese	-9189
▁Sum	-9190
तावनी	-9191
▁सजदा	-9192
▁poems	-9193
▁introduced	-9194
▁Ke	-9195
ught	-9196
िटी	-9197
▁घाटे	-9198
▁wisdom	-9199
▁friendly	-9200
▁Had	-9201
▁जड़	-9202
▁कमजोर	-9203
▁annual	-9204
▁removed	-9205
▁रण	-9206
▁bab	-9207
▁सबके	-9208
▁Mission	-9209
▁reality	-9210
▁surround	-9211
Is	-9212
▁इनकी	-9213
▁indic	-9214
▁प्रतिनिधि	-9215
▁easily	-9216
▁truthful	-9217
▁Gh	-9218
onal	-9219
▁sale	-9220
▁soil	-9221
ज्ज	-9222
▁संदेह	-9223
ahar	-9224
▁See	-9225
▁gas	-9226
▁lik	-9227
▁कामना	-9228
▁Hindus	-9229
▁कम्पनी	-9230
▁रसूलों	-9231
▁समर्थित	-9232
6)	-9233
मती	-9234
▁चीनी	-9235
▁burden	-9236
▁फ़ॉन्ट	-9237
▁टिक	-9238
▁slow	-9239
▁संतुल	-9240
Our	-9241
▁औऱ	-9242
▁messenger	-9243
▁association	-9244
▁independent	-9245
▁लकड़ी	-9246
ka	-9247
▁45	-9248
apers	-9249
▁चुना	-9250
▁doesn	-9251
రు	-9252
ller	-9253
▁Men	-9254
▁कराया	-9255
▁थोड़े	-9256
▁tidings	-9257
▁academic	-9258
▁क्षमाशील	-9259
▁Kar	-9260
▁Stat	-9261
▁सागर	-9262
▁दाखिल	-9263
▁station	-9264
amet	-9265
ंतरण	-9266
▁खड़ी	-9267
प्रदाय	-9268
▁Services	-9269
VD	-9270
खो	-9271
▁चली	-9272
▁huge	-9273
▁समावेश	-9274
▁चेतावनी	-9275
▁communities	-9276
▁औप	-9277
▁lad	-9278
▁उक्त	-9279
▁songs	-9280
▁February	-9281
न्ध	-9282
aksh	-9283
eting	-9284
▁Madh	-9285
▁परमाणु	-9286
▁km	-9287
भावना	-9288
▁डॉलर	-9289
िप्ट	-9290
▁honour	-9291
aces	-9292
teen	-9293
दायी	-9294
लैंड	-9295
ूंकि	-9296
▁army	-9297
▁सुनने	-9298
osphere	-9299
▁rupees	-9300
▁Bad	-9301
▁diss	-9302
▁Change	-9303
▁अनक़रीब	-9304
abh	-9305
ysis	-9306
बानी	-9307
ग्रस्त	-9308
स्तु	-9309
▁भंडारण	-9310
▁सुदृढ़	-9311
ux	-9312
मण	-9313
▁mort	-9314
▁प्रविष्ट	-9315
0,	-9316
▁glad	-9317
▁डिजा	-9318
▁फरवरी	-9319
▁points	-9320
ox	-9321
nel	-9322
▁GN	-9323
▁दुखद	-9324
▁सतह	-9325
▁equip	-9326
▁मिलते	-9327
▁वाक़िफ	-9328
▁offered	-9329
▁philosophy	-9330
▁hel	-9331
▁बैक	-9332
▁breast	-9333
▁confidence	-9334
ghan	-9335
▁Ant	-9336
▁मारे	-9337
▁delivered	-9338
▁procedure	-9339
ंडा	-9340
▁mal	-9341
▁आर्	-9342
▁चन्द्र	-9343
▁उपस्थिति	-9344
▁आफ	-9345
itis	-9346
▁dim	-9347
▁दिमा	-9348
▁पट्ट	-9349
▁मुकद	-9350
▁मध्यम	-9351
▁contem	-9352
▁सभ्यता	-9353
▁completely	-9354
▁ideal	-9355
▁affairs	-9356
स्फ	-9357
्यु	-9358
न्दु	-9359
▁काला	-9360
▁अवज्ञा	-9361
▁creating	-9362
▁Khan	-9363
▁submit	-9364
▁Dem	-9365
स्थापित	-9366
▁maximum	-9367
▁dry	-9368
▁दोहरा	-9369
▁prison	-9370
▁प्रशासनिक	-9371
▁challenges	-9372
साफ़	-9373
▁समित	-9374
▁Tagore	-9375
▁Network	-9376
▁literary	-9377
▁व्यावसायिक	-9378
▁communication	-9379
▁Nav	-9380
▁नाग	-9381
▁mist	-9382
▁सब्र	-9383
▁मिलियन	-9384
▁Kum	-9385
▁empty	-9386
▁बनाता	-9387
▁divide	-9388
ेंसी	-9389
▁चेहरे	-9390
▁Chandra	-9391
▁holding	-9392
घर	-9393
नीति	-9394
▁बस्ती	-9395
osh	-9396
▁कही	-9397
▁rapid	-9398
▁Health	-9399
▁बख्शने	-9400
▁picture	-9401
▁तत्वदर्शी	-9402
▁Mag	-9403
▁birds	-9404
▁fresh	-9405
▁gains	-9406
▁ढांचे	-9407
▁विनिमय	-9408
ॉर्ड	-9409
आख़िर	-9410
▁daily	-9411
▁unity	-9412
▁नेअमत	-9413
▁संविदा	-9414
abilities	-9415
▁कुफ्फ़ार	-9416
▁विद्यालय	-9417
▁शक्तियों	-9418
▁innovation	-9419
तृ	-9420
ixt	-9421
irty	-9422
ुरान	-9423
▁Ste	-9424
▁कड़ी	-9425
▁साझे	-9426
▁हिंसा	-9427
heduled	-9428
▁राजस्थान	-9429
▁बच्चा	-9430
▁settings	-9431
Sh	-9432
oph	-9433
ंचित	-9434
▁भरा	-9435
▁flag	-9436
▁दर्श	-9437
▁Thank	-9438
▁ज़िन्दा	-9439
ॉल्ट	-9440
alted	-9441
▁2011	-9442
▁views	-9443
▁संसदीय	-9444
enior	-9445
uties	-9446
▁तोड़	-9447
▁दादा	-9448
▁climate	-9449
▁department	-9450
ARD	-9451
ndra	-9452
▁Both	-9453
▁suffer	-9454
▁intellig	-9455
माल	-9456
▁SH	-9457
▁मुसी	-9458
▁चूंकि	-9459
▁मानवीय	-9460
▁संपादक	-9461
▁authent	-9462
▁assigned	-9463
▁distingu	-9464
सोस	-9465
atab	-9466
▁Rail	-9467
▁प्ला	-9468
▁organization	-9469
▁कैं	-9470
urate	-9471
▁लिखे	-9472
▁नहरें	-9473
▁Social	-9474
imal	-9475
▁fat	-9476
▁Display	-9477
▁Division	-9478
नीन	-9479
▁Karn	-9480
▁impl	-9481
▁पारि	-9482
▁congrat	-9483
aped	-9484
▁hide	-9485
▁पाँच	-9486
▁wants	-9487
▁dialog	-9488
▁disbelieved	-9489
2)	-9490
▁buy	-9491
▁शत्रु	-9492
▁Second	-9493
ronic	-9494
▁कुफ़्र	-9495
▁गिरफ्त	-9496
▁दिखाने	-9497
▁दोबारा	-9498
▁शिक्षक	-9499
▁yourself	-9500
▁सलाम	-9501
venant	-9502
▁खोलने	-9503
▁experi	-9504
▁बहुम	-9505
As	-9506
▁ult	-9507
▁Mahatma	-9508
▁charges	-9509
▁enterpr	-9510
▁अपेक्षित	-9511
पेक्ष	-9512
ॉँ	-9513
rone	-9514
▁भले	-9515
▁River	-9516
▁बनाये	-9517
▁स्वस्थ	-9518
▁History	-9519
घटना	-9520
▁तलाश	-9521
chand	-9522
▁fert	-9523
▁exact	-9524
▁मिलेगी	-9525
▁seeking	-9526
ERS	-9527
▁2003	-9528
▁Rama	-9529
oti	-9530
▁heed	-9531
▁इमार	-9532
▁prostr	-9533
▁generations	-9534
Do	-9535
ुरी	-9536
▁shr	-9537
▁acts	-9538
oj	-9539
िटल	-9540
▁arm	-9541
▁फैल	-9542
▁griev	-9543
▁habit	-9544
▁द्विप	-9545
▁ब्राह	-9546
पह	-9547
▁Ext	-9548
स्पर्	-9549
elines	-9550
नेवालो	-9551
▁yield	-9552
▁अन्तर	-9553
▁तुरंत	-9554
▁थोड़ी	-9555
▁season	-9556
▁organisation	-9557
तरी	-9558
phone	-9559
▁sustain	-9560
▁Environment	-9561
una	-9562
▁185	-9563
थान	-9564
बीह	-9565
अज़ाब	-9566
सारिक	-9567
▁रहेगी	-9568
बरा	-9569
वेद	-9570
raft	-9571
.2015	-9572
▁Prom	-9573
▁debt	-9574
▁thank	-9575
▁परिचय	-9576
▁फ़रमा	-9577
▁प्रभुत्वशाली	-9578
▁Two	-9579
▁nine	-9580
▁स्वर	-9581
▁हटकर	-9582
▁brain	-9583
▁सकेंगे	-9584
▁reduced	-9585
▁approved	-9586
▁प्रतिबद्ध	-9587
▁appointment	-9588
साइ	-9589
eria	-9590
▁भेंट	-9591
▁रोगी	-9592
▁लंबी	-9593
▁भेजने	-9594
▁युवाओं	-9595
▁District	-9596
▁नद	-9597
aneous	-9598
▁चरित्र	-9599
▁विरासत	-9600
▁Default	-9601
▁एकमात्र	-9602
▁कच	-9603
▁आयी	-9604
▁ताकत	-9605
▁frequ	-9606
▁campaign	-9607
▁वाक	-9608
▁Data	-9609
▁cook	-9610
▁अभाव	-9611
▁Belie	-9612
▁partner	-9613
¤¦	-9614
▁grad	-9615
▁souls	-9616
▁initiatives	-9617
IP	-9618
▁आह	-9619
▁नेकी	-9620
▁namely	-9621
▁carrying	-9622
▁सम्पूर्ण	-9623
▁मिट	-9624
enses	-9625
▁मस्जि	-9626
▁positive	-9627
ेन	-9628
▁हाइ	-9629
▁रिया	-9630
▁Since	-9631
▁inher	-9632
▁conver	-9633
▁मृ	-9634
पत	-9635
▁MS	-9636
▁खि	-9637
▁ast	-9638
▁replied	-9639
▁articles	-9640
CE	-9641
omp	-9642
्यास	-9643
▁jur	-9644
▁follows	-9645
▁राजधानी	-9646
▁सांसारिक	-9647
▁स्वाम	-9648
▁mainly	-9649
▁अन्ततः	-9650
▁forbidden	-9651
▁ईमानवालों	-9652
25	-9653
ij	-9654
lege	-9655
्यूब	-9656
▁altern	-9657
▁merely	-9658
▁mir	-9659
▁डिज	-9660
▁kingdom	-9661
▁primary	-9662
▁diseases	-9663
▁Rajasthan	-9664
bon	-9665
▁ban	-9666
▁महल	-9667
▁vital	-9668
▁निवास	-9669
izations	-9670
▁blessings	-9671
ped	-9672
dule	-9673
▁Yes	-9674
▁nut	-9675
▁org	-9676
▁वंश	-9677
anged	-9678
▁Aust	-9679
▁urban	-9680
▁परिसर	-9681
▁संग्र	-9682
omy	-9683
cean	-9684
▁क्ला	-9685
▁गांवों	-9686
▁Russ	-9687
▁नारा	-9688
▁profits	-9689
▁neck	-9690
▁Akbar	-9691
▁wherein	-9692
▁सम्बन्धी	-9693
enth	-9694
venue	-9695
▁Each	-9696
▁संबद्ध	-9697
▁returns	-9698
▁विविधता	-9699
▁Lab	-9700
▁Nat	-9701
▁cold	-9702
▁खराब	-9703
▁गिन	-9704
▁oath	-9705
▁Among	-9706
▁minor	-9707
▁string	-9708
मति	-9709
▁खत्म	-9710
▁लेखन	-9711
vision	-9712
▁pleased	-9713
eks	-9714
पिता	-9715
▁बाह्य	-9716
▁reasons	-9717
▁समुद्री	-9718
▁individuals	-9719
▁33	-9720
▁रवी	-9721
▁ड्राइ	-9722
▁Lim	-9723
▁जला	-9724
▁highly	-9725
▁अस्पताल	-9726
▁sections	-9727
▁अश	-9728
rees	-9729
▁चुप	-9730
▁जाल	-9731
▁आहार	-9732
▁रोज़	-9733
▁battle	-9734
▁machinery	-9735
तरित	-9736
arant	-9737
lfare	-9738
▁उतना	-9739
▁जुड़ा	-9740
▁welfare	-9741
▁प्रतियोग	-9742
ira	-9743
ख्ते	-9744
▁बुरे	-9745
▁सिविल	-9746
▁excess	-9747
▁Special	-9748
▁keeping	-9749
रीबी	-9750
▁Bel	-9751
▁sand	-9752
▁Though	-9753
▁गुमराह	-9754
नाटक	-9755
.2016	-9756
▁plat	-9757
▁दोनो	-9758
8)	-9759
▁minimum	-9760
▁प्रान्त	-9761
▁~	-9762
्ता	-9763
▁इंच	-9764
▁उल्ल	-9765
▁गेंद	-9766
▁meant	-9767
▁चाहती	-9768
▁shared	-9769
▁aid	-9770
▁Mary	-9771
▁लाइस	-9772
▁volunt	-9773
▁Himalay	-9774
पणी	-9775
फ़ि	-9776
▁पार्	-9777
▁प्री	-9778
▁Water	-9779
vention	-9780
▁पुष्टि	-9781
▁Programme	-9782
▁पैग़म्बरों	-9783
त्स	-9784
▁00	-9785
▁2004	-9786
ricket	-9787
▁excellent	-9788
▁న	-9789
चरण	-9790
▁अं	-9791
रचना	-9792
▁अस्वी	-9793
▁filled	-9794
▁joined	-9795
▁regions	-9796
▁प्रबंधक	-9797
▁daughter	-9798
▁undertaking	-9799
खन	-9800
pan	-9801
बेस	-9802
्याद	-9803
▁Key	-9804
▁ठहर	-9805
▁कार्ब	-9806
▁Besides	-9807
▁installed	-9808
gin	-9809
ilty	-9810
▁वीर	-9811
▁encoura	-9812
▁पुस्तकालय	-9813
▁rej	-9814
rency	-9815
respond	-9816
▁निकाला	-9817
▁बारगाह	-9818
▁affected	-9819
▁practices	-9820
▁background	-9821
व्यव	-9822
ricts	-9823
▁धातु	-9824
▁challenge	-9825
टका	-9826
▁मृत	-9827
▁late	-9828
▁अभिक	-9829
▁वार्	-9830
▁सन्द	-9831
▁अदालत	-9832
▁न्यास	-9833
▁prepar	-9834
ika	-9835
▁अस्थायी	-9836
▁Internet	-9837
▁interesting	-9838
▁निः	-9839
▁surv	-9840
▁तेरी	-9841
ancing	-9842
▁utter	-9843
▁कुरान	-9844
▁समझौते	-9845
▁library	-9846
▁authorities	-9847
▁संश	-9848
arati	-9849
aying	-9850
▁जिम्मेदारी	-9851
गन	-9852
▁tab	-9853
▁तयशुदा	-9854
uta	-9855
▁Joh	-9856
▁sought	-9857
▁wrongdo	-9858
र्की	-9859
▁lest	-9860
▁Commun	-9861
▁bodies	-9862
▁degree	-9863
जाम	-9864
▁भरे	-9865
▁demon	-9866
▁minutes	-9867
▁विभाजित	-9868
▁नियुक्ति	-9869
UL	-9870
info	-9871
▁याच	-9872
▁खण्ड	-9873
inc	-9874
▁sick	-9875
▁उन्न	-9876
▁दाख़	-9877
▁विनष्ट	-9878
▁recompense	-9879
▁Type	-9880
▁संगम	-9881
sych	-9882
पक्ष	-9883
▁Arch	-9884
▁actual	-9885
निंग	-9886
astic	-9887
▁बिगा	-9888
▁रिक्त	-9889
▁अनुग्रह	-9890
▁regional	-9891
▁सप	-9892
ores	-9893
▁Mer	-9894
▁सफेद	-9895
▁हड्ड	-9896
▁चीजों	-9897
▁अवतरित	-9898
▁household	-9899
फ़ी	-9900
▁Financial	-9901
▁transform	-9902
¤	-9903
▁02	-9904
▁wild	-9905
▁कार्	-9906
▁सराहना	-9907
▁resource	-9908
rad	-9909
पंथ	-9910
▁असर	-9911
▁प्रथा	-9912
▁materials	-9913
▁६	-9914
▁pi	-9915
▁पत	-9916
जैसे	-9917
मेरे	-9918
udget	-9919
▁Mail	-9920
▁crim	-9921
▁seeing	-9922
▁notification	-9923
त्ल	-9924
िकमत	-9925
चार्य	-9926
enture	-9927
▁अवधार	-9928
▁नौकरी	-9929
▁वर्गों	-9930
▁ऑडियो	-9931
▁सर्वोत्तम	-9932
▁यो	-9933
▁चिप	-9934
arian	-9935
▁cand	-9936
▁बिंदु	-9937
iciency	-9938
याय	-9939
▁Aff	-9940
▁डरो	-9941
▁इल्म	-9942
▁cance	-9943
▁moved	-9944
बाज	-9945
ीकृत	-9946
▁htt	-9947
▁दान	-9948
icient	-9949
▁ब्राउ	-9950
CO	-9951
ica	-9952
▁Ham	-9953
▁syn	-9954
▁ठोस	-9955
conomic	-9956
imately	-9957
▁covenant	-9958
▁cru	-9959
रूद्ध	-9960
▁दबाव	-9961
▁नाते	-9962
▁board	-9963
▁Bengali	-9964
▁उन्होने	-9965
rome	-9966
▁300	-9967
ishing	-9968
▁looks	-9969
▁festival	-9970
▁मछली	-9971
▁पालने	-9972
▁क़ियामत	-9973
▁फ़ाइलें	-9974
ँस	-9975
achal	-9976
▁2009	-9977
▁drawn	-9978
▁सुनते	-9979
▁शर्तों	-9980
▁darkness	-9981
▁pressure	-9982
▁leadership	-9983
SS	-9984
mi	-9985
्मण	-9986
्रेट	-9987
▁Cap	-9988
श्वास	-9989
▁लिमि	-9990
▁प्यार	-9991
▁branch	-9992
▁critic	-9993
▁teaching	-9994
▁entreprene	-9995
ंध्र	-9996
force	-9997
▁Date	-9998
▁सुविधाएं	-9999
▁believing	-10000
▁prosperity	-10001
स्को	-10002
▁drop	-10003
▁dispute	-10004
▁changing	-10005
वश	-10006
ूहिक	-10007
▁गर्म	-10008
▁मुर्	-10009
▁garden	-10010
▁confident	-10011
ander	-10012
▁sett	-10013
▁Members	-10014
¤	-10015
ंछ	-10016
▁IM	-10017
▁टूट	-10018
▁पर्	-10019
▁hair	-10020
नात्मक	-10021
▁moral	-10022
▁beings	-10023
▁दाख़िल	-10024
▁Official	-10025
ips	-10026
▁tong	-10027
▁दैनिक	-10028
▁mission	-10029
▁delivery	-10030
▁description	-10031
▁destination	-10032
)?	-10033
▁देखी	-10034
▁प्रदूषण	-10035
▁Language	-10036
porate	-10037
▁agreed	-10038
▁features	-10039
साम	-10040
▁वरि	-10041
▁latest	-10042
▁receipt	-10043
▁निरीक्षण	-10044
अल	-10045
ोष	-10046
క్	-10047
▁ang	-10048
ottom	-10049
▁दर्द	-10050
overed	-10051
पणन	-10052
धर्म	-10053
▁east	-10054
▁बाधा	-10055
ura	-10056
▁ji	-10057
स्ट्र	-10058
▁Like	-10059
▁theme	-10060
▁समूहों	-10061
यिक	-10062
िने	-10063
ड़ित	-10064
ataka	-10065
▁लिमिटेड	-10066
▁`	-10067
▁ic	-10068
संबर	-10069
कृष्ण	-10070
▁फिली	-10071
▁visible	-10072
▁अनुसूचित	-10073
▁Bu	-10074
▁गू	-10075
▁सन	-10076
▁मानना	-10077
▁relief	-10078
ensation	-10079
▁संक्रमण	-10080
▁परिभाषित	-10081
उंड	-10082
गमन	-10083
▁क़ायम	-10084
▁स्कीम	-10085
▁समृद्धि	-10086
▁Certificate	-10087
▁Hour	-10088
▁तारा	-10089
tenance	-10090
▁लाइसेंस	-10091
▁inspired	-10092
▁अंतरिक्ष	-10093
OC	-10094
▁Non	-10095
▁fab	-10096
निष्ठ	-10097
▁fell	-10098
▁tiss	-10099
ertain	-10100
▁ahead	-10101
▁guilty	-10102
▁क़िस्म	-10103
▁स्वचालित	-10104
BI	-10105
▁आल	-10106
)...	-10107
▁फ्र	-10108
▁बोली	-10109
▁मुका	-10110
▁हिकमत	-10111
▁गुनाहों	-10112
▁संपादित	-10113
¤¡	-10114
▁डो	-10115
▁Rules	-10116
▁नीतियों	-10117
che	-10118
▁वकी	-10119
▁पैसे	-10120
नेवाली	-10121
▁कपड़े	-10122
▁वस्त्र	-10123
▁passing	-10124
▁स्वीकृति	-10125
▁Authority	-10126
vis	-10127
▁dear	-10128
▁प्रवाह	-10129
▁submitted	-10130
हो	-10131
ग्ध	-10132
हाई	-10133
▁हक	-10134
▁187	-10135
▁Don	-10136
▁परे	-10137
▁डिफ़	-10138
▁सितंबर	-10139
85	-10140
ैत	-10141
¤1⁄4	-10142
▁ऑंख	-10143
▁ख़ुश	-10144
▁संध्या	-10145
▁collabor	-10146
▁requirements	-10147
सागर	-10148
▁assum	-10149
▁title	-10150
▁नवान्वेषण	-10151
een	-10152
rench	-10153
▁colour	-10154
▁integral	-10155
▁universal	-10156
फू	-10157
▁Park	-10158
▁अपरि	-10159
▁गिरा	-10160
▁piece	-10161
▁अँ	-10162
▁कू	-10163
rible	-10164
वलोकन	-10165
inated	-10166
▁Assam	-10167
▁4,	-10168
▁क़ुरआन	-10169
▁Gardens	-10170
▁encourage	-10171
सेट	-10172
ायर	-10173
वर्त	-10174
▁iron	-10175
▁राहत	-10176
▁users	-10177
▁कश्मीर	-10178
▁England	-10179
▁aspects	-10180
▁options	-10181
ondon	-10182
▁स्वाभाविक	-10183
ocol	-10184
▁150	-10185
ument	-10186
▁micro	-10187
▁जोड़ा	-10188
▁महीनों	-10189
▁although	-10190
▁planning	-10191
▁Excellency	-10192
▁principles	-10193
▁आवश्यकताओं	-10194
▁छाया	-10195
▁Ganga	-10196
▁संग्रहालय	-10197
▁संपादन	-10198
▁अनुमोदन	-10199
▁सामूहिक	-10200
▁entitled	-10201
▁selection	-10202
aul	-10203
▁latter	-10204
▁recently	-10205
▁प्रतिष्ठित	-10206
seen	-10207
▁atm	-10208
▁टैब	-10209
ख्यात	-10210
▁साइट	-10211
▁समझता	-10212
▁प्रचलित	-10213
दीक	-10214
▁सदी	-10215
▁ट्रे	-10216
▁उपखंड	-10217
▁हार्दिक	-10218
itt	-10219
जान	-10220
▁Est	-10221
▁साध	-10222
▁ende	-10223
▁भावी	-10224
▁correspond	-10225
ैरह	-10226
्यूल	-10227
▁star	-10228
▁बारी	-10229
▁मोदी	-10230
▁waiting	-10231
▁internal	-10232
▁टॉ	-10233
▁भरी	-10234
▁jinn	-10235
▁ज़रा	-10236
▁डिजाइन	-10237
▁Foreign	-10238
▁गौ	-10239
▁करु	-10240
▁जम्	-10241
▁पैके	-10242
▁Click	-10243
▁absolute	-10244
मगर	-10245
▁Kov	-10246
▁1956	-10247
▁ऊपरी	-10248
▁लेती	-10249
igible	-10250
▁duties	-10251
▁चौड़ाई	-10252
▁greetings	-10253
oseph	-10254
▁estim	-10255
▁Company	-10256
▁wronged	-10257
▁resolution	-10258
mar	-10259
िपि	-10260
▁अली	-10261
▁उन्नत	-10262
▁critical	-10263
▁Sun	-10264
▁ऊँचा	-10265
▁click	-10266
▁reply	-10267
200	-10268
▁Ib	-10269
▁adequ	-10270
▁Speaking	-10271
▁released	-10272
दल	-10273
ache	-10274
▁हमे	-10275
ayana	-10276
▁nearly	-10277
▁sacred	-10278
▁अग्रणी	-10279
▁पैमाने	-10280
▁reforms	-10281
▁facility	-10282
बाल	-10283
▁कब्	-10284
▁Panch	-10285
▁विहित	-10286
वादियों	-10287
▁thereby	-10288
▁performed	-10289
లు	-10290
idge	-10291
▁hero	-10292
▁आदान	-10293
▁चाहें	-10294
▁अभिलाभ	-10295
▁Library	-10296
10	-10297
▁प्लगइन	-10298
▁incident	-10299
यो	-10300
क़त	-10301
ज़िर	-10302
हिता	-10303
▁Life	-10304
मुसलमान	-10305
▁सावधान	-10306
▁अरबी	-10307
othing	-10308
▁Trust	-10309
▁prices	-10310
▁विद्या	-10311
▁प्रतिभूति	-10312
क्क	-10313
▁weeks	-10314
▁सुनता	-10315
▁disput	-10316
▁actions	-10317
▁टिप्पणी	-10318
फो	-10319
बिल	-10320
▁DVD	-10321
▁inner	-10322
▁failure	-10323
▁substant	-10324
▁द्विपक्षीय	-10325
ट्	-10326
ाइन	-10327
▁उगा	-10328
▁फ़िल	-10329
▁उत्साह	-10330
▁foundation	-10331
लक	-10332
▁मक	-10333
orth	-10334
▁छुपा	-10335
gypt	-10336
स्कट	-10337
▁Word	-10338
▁चैनल	-10339
▁juris	-10340
ंटा	-10341
odes	-10342
▁rob	-10343
valid	-10344
▁गहरी	-10345
▁seized	-10346
ni	-10347
▁Ha	-10348
धारी	-10349
▁त्वचा	-10350
▁विक्र	-10351
▁विपणन	-10352
हाल	-10353
▁grass	-10354
▁double	-10355
▁फ़िल्म	-10356
▁College	-10357
▁methods	-10358
▁भारतीयों	-10359
ifications	-10360
मंड	-10361
▁छि	-10362
inger	-10363
▁Benef	-10364
▁hypoc	-10365
▁forever	-10366
▁reminder	-10367
▁subjects	-10368
/-	-10369
tion	-10370
▁दुर	-10371
▁arrest	-10372
▁ability	-10373
▁intellectual	-10374
erate	-10375
▁2010	-10376
▁भेजी	-10377
▁समझे	-10378
charge	-10379
▁descend	-10380
▁letters	-10381
▁division	-10382
▁participation	-10383
▁यौ	-10384
▁Andhra	-10385
▁victory	-10386
▁शक्तिशाली	-10387
look	-10388
▁Doc	-10389
▁tur	-10390
ollow	-10391
▁पीढ़ी	-10392
▁स्ट्र	-10393
▁editor	-10394
ार्ट	-10395
▁द्वि	-10396
ributed	-10397
रेखा	-10398
▁obst	-10399
▁compr	-10400
▁तुम्हे	-10401
▁sources	-10402
▁plugin	-10403
▁समानता	-10404
ार्ज	-10405
▁रेश	-10406
कार्य	-10407
▁गरीबी	-10408
▁reduce	-10409
▁delight	-10410
▁insurance	-10411
back	-10412
▁रूस	-10413
using	-10414
▁नेपाल	-10415
▁platform	-10416
isms	-10417
▁west	-10418
▁वर्गी	-10419
▁limits	-10420
▁folders	-10421
▁attached	-10422
asm	-10423
▁दुः	-10424
▁हरि	-10425
▁Yoga	-10426
▁ट्रै	-10427
▁मौजि	-10428
▁audio	-10429
▁जानवरों	-10430
▁दुर्घटना	-10431
▁governance	-10432
▁Subs	-10433
▁मुंह	-10434
▁सहमत	-10435
▁सरकशी	-10436
▁जहन्नम	-10437
▁channel	-10438
▁discipl	-10439
▁चाहेंगे	-10440
▁चिह्नित	-10441
▁श्रद्धा	-10442
▁establishment	-10443
▁सीधी	-10444
▁आजादी	-10445
▁दिसंबर	-10446
धियों	-10447
▁लगाए	-10448
▁अवसरों	-10449
isition	-10450
్ర	-10451
▁रिज	-10452
clause	-10453
▁पर्वत	-10454
▁कारणों	-10455
▁fighting	-10456
▁suffering	-10457
▁Governments	-10458
▁आकृति	-10459
▁यूनिट	-10460
▁Another	-10461
▁प्रतिबंध	-10462
माना	-10463
▁हुक	-10464
▁अर्ध	-10465
▁stood	-10466
▁स्क्र	-10467
▁Current	-10468
▁चिकित्स	-10469
▁बहुतेरे	-10470
▁స	-10471
▁एक्	-10472
▁चतु	-10473
▁सचेत	-10474
▁plays	-10475
▁विद्र	-10476
atabase	-10477
otional	-10478
▁Config	-10479
▁मुसीबत	-10480
▁enabled	-10481
-4	-10482
ayan	-10483
▁About	-10484
urities	-10485
क्षिप्त	-10486
▁सीमाओं	-10487
▁deposit	-10488
▁flu	-10489
▁सेक	-10490
▁ऊंचाई	-10491
▁असाधारण	-10492
▁प्रतिस्पर्	-10493
▁Av	-10494
▁अय	-10495
▁टू	-10496
rical	-10497
▁tend	-10498
▁Found	-10499
▁जितनी	-10500
▁कृतज्ञ	-10501
दरा	-10502
hand	-10503
▁HTML	-10504
▁delete	-10505
▁petitioner	-10506
▁दौड़	-10507
▁London	-10508
hu	-10509
iant	-10510
▁Tru	-10511
▁phone	-10512
▁healthy	-10513
▁manager	-10514
▁suitable	-10515
▁scientists	-10516
oning	-10517
▁जन्नत	-10518
▁bestowed	-10519
▁ज़ालिमों	-10520
▁sacrifice	-10521
▁Self	-10522
▁trave	-10523
Comment	-10524
▁कर्तव्य	-10525
▁लानेवालो	-10526
▁कर्नाटक	-10527
▁मंदिरों	-10528
▁यूरोपीय	-10529
▁chemical	-10530
▁औरत	-10531
▁घटक	-10532
▁आरोप	-10533
▁admon	-10534
▁उतारा	-10535
▁Number	-10536
▁प्रविष्टि	-10537
grim	-10538
writ	-10539
सनीय	-10540
▁लाओ	-10541
▁चाहा	-10542
▁डिफ़ॉल्ट	-10543
सीन	-10544
▁courage	-10545
▁साहित्यिक	-10546
▁बांग	-10547
▁endeav	-10548
▁Reserve	-10549
तियां	-10550
▁क्रिकेट	-10551
▁consists	-10552
डो	-10553
pel	-10554
▁दह	-10555
oles	-10556
▁row	-10557
▁आएगा	-10558
▁उद्ध	-10559
▁billion	-10560
▁achieved	-10561
▁Scripture	-10562
उप	-10563
तौर	-10564
▁बन्दे	-10565
▁Export	-10566
▁counter	-10567
aut	-10568
शिष्ट	-10569
▁कुमार	-10570
▁treated	-10571
▁मक्	-10572
दर्शिता	-10573
▁compassion	-10574
दूरी	-10575
▁चीजें	-10576
▁संवर्धन	-10577
▁president	-10578
కు	-10579
नें	-10580
hern	-10581
▁mountain	-10582
▁registration	-10583
ंची	-10584
▁Sk	-10585
orial	-10586
▁Custom	-10587
▁relative	-10588
udi	-10589
▁Pet	-10590
▁Egypt	-10591
▁डेस्कट	-10592
▁Independ	-10593
imb	-10594
▁मकान	-10595
▁upper	-10596
▁दिमाग	-10597
▁defence	-10598
▁nuclear	-10599
तिश	-10600
▁क़दम	-10601
्यादती	-10602
▁promotion	-10603
▁खाओ	-10604
▁Make	-10605
▁Color	-10606
▁अक्षर	-10607
▁पत्रिका	-10608
mn	-10609
▁ax	-10610
ष्णु	-10611
▁lock	-10612
▁ब्रि	-10613
▁Autom	-10614
▁Mighty	-10615
▁शिक्षण	-10616
▁showing	-10617
कू	-10618
▁anti	-10619
▁क़त्ल	-10620
▁हितों	-10621
▁orders	-10622
▁containing	-10623
7)	-10624
80	-10625
िकता	-10626
▁Maj	-10627
▁Met	-10628
▁रवि	-10629
▁स्वर्ण	-10630
मों	-10631
▁instance	-10632
▁गार	-10633
▁adult	-10634
▁insects	-10635
▁साथियों	-10636
ुरा	-10637
▁कोय	-10638
▁शरण	-10639
▁fabric	-10640
▁(4	-10641
शाही	-10642
▁साव	-10643
ingly	-10644
हमारे	-10645
▁Mount	-10646
▁जिहाद	-10647
▁मिलाकर	-10648
▁वरिष्ठ	-10649
▁charged	-10650
▁student	-10651
▁agencies	-10652
▁केंद्रित	-10653
▁awareness	-10654
कोश	-10655
ॉनिक	-10656
▁बोस	-10657
▁पहलू	-10658
प्रदान	-10659
▁भक्ति	-10660
▁तत्काल	-10661
▁क्रांति	-10662
▁priority	-10663
▁advantage	-10664
raid	-10665
▁liqu	-10666
▁खतरा	-10667
▁Press	-10668
▁newsp	-10669
▁दर्दना	-10670
राव	-10671
▁Invalid	-10672
▁proport	-10673
▁reports	-10674
▁Assistant	-10675
▁historical	-10676
ंघन	-10677
ेरे	-10678
▁कक्षा	-10679
▁पौधों	-10680
मूल	-10681
ंख्य	-10682
मर्श	-10683
▁glor	-10684
▁match	-10685
▁Buddha	-10686
▁बादशाह	-10687
▁रेडियो	-10688
rel	-10689
▁Prote	-10690
▁mobile	-10691
▁proved	-10692
▁thanks	-10693
▁अग्रिम	-10694
▁सत्यापन	-10695
aly	-10696
▁उभ	-10697
ithm	-10698
▁Ash	-10699
▁जवा	-10700
ifies	-10701
▁कष्ट	-10702
▁surpr	-10703
▁इंग्ल	-10704
▁doctor	-10705
▁sitting	-10706
▁conflict	-10707
▁extension	-10708
▁उल्लेखनीय	-10709
▁manufacturing	-10710
bal	-10711
ेश्वर	-10712
▁Tour	-10713
▁अकेले	-10714
▁दिव्य	-10715
▁Proper	-10716
▁visited	-10717
▁requires	-10718
▁hop	-10719
▁veh	-10720
▁फर्म	-10721
▁अन्तर्गत	-10722
▁प्रतियोगिता	-10723
”,	-10724
otic	-10725
▁Micro	-10726
▁अपनाया	-10727
▁bilateral	-10728
▁fundamental	-10729
▁publication	-10730
▁Nag	-10731
▁चोट	-10732
iders	-10733
▁doub	-10734
▁Print	-10735
▁धारणा	-10736
▁बाध्य	-10737
▁पक्षों	-10738
▁Palestin	-10739
▁recorded	-10740
ubs	-10741
नाक	-10742
▁AD	-10743
▁Ira	-10744
▁उड़ा	-10745
▁decades	-10746
▁टो	-10747
plit	-10748
▁menu	-10749
▁पुष्	-10750
▁देवता	-10751
▁पासवर्ड	-10752
▁निष्कर्ष	-10753
संप	-10754
▁सीडी	-10755
▁served	-10756
▁happiness	-10757
▁नाप	-10758
oration	-10759
▁विनिर्माण	-10760
िमा	-10761
▁घु	-10762
▁hind	-10763
क्तूबर	-10764
▁Civil	-10765
▁Class	-10766
▁Party	-10767
▁adopt	-10768
▁swear	-10769
▁showed	-10770
▁वार्ता	-10771
▁प्रारम्भ	-10772
जाल	-10773
रेख	-10774
▁Bah	-10775
▁eth	-10776
thern	-10777
▁संरक्षक	-10778
▁examination	-10779
rief	-10780
▁Pen	-10781
▁centres	-10782
▁सदस्यता	-10783
▁फु	-10784
▁चाय	-10785
▁Nepal	-10786
▁तीसरे	-10787
▁Knower	-10788
पल	-10789
God	-10790
नान	-10791
्मा	-10792
▁लूत	-10793
▁Once	-10794
▁फोटो	-10795
▁Arabic	-10796
▁Kovind	-10797
▁objects	-10798
▁34	-10799
▁approval	-10800
▁डेस्कटॉप	-10801
▁thousands	-10802
IM	-10803
osit	-10804
ंगों	-10805
▁FOR	-10806
▁चेक	-10807
▁बुल	-10808
▁Play	-10809
▁बचाव	-10810
iration	-10811
▁Society	-10812
िरी	-10813
▁uns	-10814
▁लगती	-10815
▁कॉलेज	-10816
▁signed	-10817
▁figures	-10818
TH	-10819
▁(.	-10820
▁44	-10821
isc	-10822
ण्य	-10823
▁vir	-10824
▁choice	-10825
▁कठिनाई	-10826
▁उपकरणों	-10827
▁दर्दनाक	-10828
▁purchase	-10829
▁उपयोगकर्ता	-10830
न्थ	-10831
▁5,	-10832
▁यथ	-10833
दायक	-10834
▁कहे	-10835
▁बढा	-10836
▁काली	-10837
▁ग़ौर	-10838
▁factors	-10839
त्ते	-10840
▁plot	-10841
▁हमको	-10842
▁monitor	-10843
▁distinct	-10844
▁election	-10845
▁sanction	-10846
▁witnesses	-10847
▁(5)	-10848
▁बजट	-10849
▁हरे	-10850
▁दिलच	-10851
क्योंकि	-10852
▁obvious	-10853
▁अनुज्ञात	-10854
EG	-10855
ूर्ण	-10856
▁sus	-10857
▁Creat	-10858
▁caste	-10859
▁grown	-10860
▁यूसुफ	-10861
▁marked	-10862
▁volume	-10863
▁register	-10864
▁Mat	-10865
▁Mun	-10866
▁सांस	-10867
▁मनुष्यों	-10868
▁decisions	-10869
IF	-10870
▁tom	-10871
▁सेल	-10872
धिकारी	-10873
▁eleph	-10874
▁प्रोज	-10875
▁रहस्य	-10876
▁शोक	-10877
▁जम्मू	-10878
▁प्रेस	-10879
▁पड़ेगा	-10880
▁effects	-10881
▁commanded	-10882
▁forgiving	-10883
्रोल	-10884
▁गहन	-10885
▁मजदूर	-10886
orthern	-10887
▁पूर्वो	-10888
▁playing	-10889
▁privile	-10890
▁Tribunal	-10891
▁8.	-10892
dess	-10893
▁dign	-10894
▁leaf	-10895
▁आपसे	-10896
▁चढ़ा	-10897
icious	-10898
▁Associ	-10899
▁whereas	-10900
1}	-10901
म्परा	-10902
▁दुश्	-10903
fts	-10904
▁Assess	-10905
▁इसराईल	-10906
▁मोमिनीन	-10907
ानिक	-10908
▁यूँ	-10909
inese	-10910
▁Stud	-10911
▁heat	-10912
▁घाटी	-10913
▁बढ़ने	-10914
▁Iraq	-10915
▁Writ	-10916
▁बांध	-10917
▁चंद्र	-10918
19	-10919
ris	-10920
सेस	-10921
oral	-10922
▁ren	-10923
▁reck	-10924
▁चिंत	-10925
▁enhan	-10926
▁आंध्र	-10927
▁bright	-10928
▁तकलीफ़	-10929
▁पुस्तकों	-10930
No	-10931
श्री	-10932
anging	-10933
▁chance	-10934
▁smaller	-10935
▁becoming	-10936
▁manufacture	-10937
▁universities	-10938
ज़ोर	-10939
▁तंग	-10940
▁नज़	-10941
▁दावे	-10942
▁बैठा	-10943
▁नेशनल	-10944
▁तत्वों	-10945
▁accident	-10946
▁परिवारों	-10947
अनु	-10948
कल्प	-10949
▁dia	-10950
▁पाइ	-10951
stitu	-10952
▁Cult	-10953
▁Modi	-10954
▁लाना	-10955
▁जायें	-10956
▁सम्भव	-10957
▁contacts	-10958
▁यथास्थिति	-10959
▁>>	-10960
काता	-10961
▁खतर	-10962
▁खिस	-10963
▁phase	-10964
▁पूर्ति	-10965
▁याचिका	-10966
▁विरूद्ध	-10967
▁multiple	-10968
astern	-10969
▁incor	-10970
▁बिगाड़	-10971
▁संवेदन	-10972
▁burning	-10973
▁Security	-10974
oose	-10975
▁दास	-10976
▁रिस	-10977
▁फेंक	-10978
▁solar	-10979
▁guides	-10980
▁bringing	-10981
esus	-10982
▁ब्य	-10983
▁इलाज	-10984
▁समाय	-10985
▁helps	-10986
▁spoke	-10987
▁warner	-10988
▁अर्जित	-10989
▁negative	-10990
▁engineering	-10991
खों	-10992
द्दी	-10993
ammed	-10994
▁fault	-10995
▁Before	-10996
▁निर्मा	-10997
aks	-10998
ढ़े	-10999
▁फि	-11000
▁Gov	-11001
▁असल	-11002
▁Page	-11003
▁commitment	-11004
▁पूर्वावलोकन	-11005
▁successfully	-11006
▁sell	-11007
▁banking	-11008
▁situated	-11009
rat	-11010
रुप	-11011
▁BC	-11012
▁कमरे	-11013
diction	-11014
▁decide	-11015
▁married	-11016
▁efficient	-11017
mod	-11018
▁वस	-11019
▁doll	-11020
▁uses	-11021
▁अहले	-11022
▁preced	-11023
▁फ़िरऔन	-11024
▁मूलभूत	-11025
▁appears	-11026
▁sending	-11027
▁जिम्मेदार	-11028
पूर	-11029
ैया	-11030
esty	-11031
▁उपर	-11032
hance	-11033
pective	-11034
▁Training	-11035
▁Next	-11036
▁बारह	-11037
▁records	-11038
ibilities	-11039
▁constituted	-11040
anj	-11041
▁पैरा	-11042
▁हिमा	-11043
▁फायदा	-11044
▁कनेक्ट	-11045
▁प्रणाल	-11046
▁finally	-11047
ghanistan	-11048
▁‘‘	-11049
oser	-11050
▁हला	-11051
▁आलोचना	-11052
▁principle	-11053
alg	-11054
जनन	-11055
erves	-11056
▁band	-11057
▁अगली	-11058
▁drugs	-11059
ulating	-11060
▁subsequ	-11061
▁officials	-11062
going	-11063
▁Disc	-11064
▁अंतः	-11065
▁admit	-11066
▁coord	-11067
▁छोड़ा	-11068
▁संहिता	-11069
▁warning	-11070
▁पंजीकृत	-11071
▁discussion	-11072
othe	-11073
स्तर	-11074
▁Mand	-11075
▁कहला	-11076
▁defend	-11077
▁इंडियन	-11078
▁faithful	-11079
▁politics	-11080
▁फ़रिश्ते	-11081
ब्ब	-11082
▁Va	-11083
ammu	-11084
▁weap	-11085
▁लिंग	-11086
▁toward	-11087
▁राजस्व	-11088
▁समन्वय	-11089
▁अक्तूबर	-11090
rehensive	-11091
▁professional	-11092
St	-11093
ुति	-11094
▁mur	-11095
▁Help	-11096
▁coal	-11097
enance	-11098
▁unable	-11099
▁parliament	-11100
ses	-11101
▁Exp	-11102
▁Log	-11103
▁अग्	-11104
▁पहन	-11105
स्ट्री	-11106
▁applied	-11107
▁announced	-11108
▁व्यक्तित्व	-11109
▁technologies	-11110
किसी	-11111
▁काउ	-11112
ात्मक	-11113
▁poem	-11114
▁Administ	-11115
काय	-11116
▁gat	-11117
▁घूम	-11118
निवेश	-11119
▁Year	-11120
▁valu	-11121
▁delay	-11122
▁Karnataka	-11123
▁proceedings	-11124
▁पैकेज	-11125
▁लगाना	-11126
▁प्रेषित	-11127
▁चुनौतियों	-11128
RAN	-11129
फोन	-11130
oken	-11131
▁Find	-11132
▁rates	-11133
▁निशानियों	-11134
ुसार	-11135
▁पाद	-11136
अच्छा	-11137
▁Jews	-11138
▁Prem	-11139
▁Const	-11140
▁skills	-11141
▁writer	-11142
िली	-11143
plate	-11144
▁notes	-11145
▁Justice	-11146
▁squared	-11147
greg	-11148
▁Top	-11149
▁क्व	-11150
ड़िया	-11151
▁चीज़े	-11152
▁शान्त	-11153
▁democratic	-11154
1)	-11155
ंकित	-11156
▁eld	-11157
▁Code	-11158
▁नेत्र	-11159
aughters	-11160
▁नार	-11161
▁ईसाई	-11162
▁assured	-11163
▁इक	-11164
▁Gra	-11165
▁ख़ौ	-11166
abinet	-11167
pected	-11168
▁सैनिक	-11169
▁damage	-11170
▁बैंकिंग	-11171
▁download	-11172
aded	-11173
claim	-11174
▁Vishn	-11175
▁girls	-11176
▁overt	-11177
▁solution	-11178
▁currently	-11179
pta	-11180
▁infl	-11181
▁कहेगा	-11182
▁सहमति	-11183
,—	-11184
ंडित	-11185
▁तैय	-11186
▁वकील	-11187
▁skill	-11188
मुसलमानों	-11189
▁lose	-11190
▁गठित	-11191
▁Women	-11192
▁sugar	-11193
▁escape	-11194
▁concent	-11195
▁supreme	-11196
▁कॉन्फ़ि	-11197
▁त्रुटिः	-11198
▁suddenly	-11199
¤«	-11200
aced	-11201
eless	-11202
▁बाबू	-11203
▁पड़ती	-11204
▁बल्ले	-11205
▁मैत्री	-11206
▁falsehood	-11207
▁friendship	-11208
iy	-11209
▁ग्री	-11210
▁शिशु	-11211
▁साहस	-11212
▁happens	-11213
▁pollution	-11214
▁Enc	-11215
▁शेय	-11216
▁37	-11217
▁सद्	-11218
▁क्षण	-11219
▁favor	-11220
▁जम	-11221
शांत	-11222
▁अकाद	-11223
▁बेटा	-11224
▁Clear	-11225
▁abund	-11226
▁आबादी	-11227
ossible	-11228
▁orient	-11229
▁followers	-11230
▁वाणिज्यिक	-11231
wa	-11232
▁John	-11233
▁disk	-11234
▁कागज	-11235
▁Human	-11236
▁afford	-11237
ंदगी	-11238
▁परस	-11239
▁भटक	-11240
ients	-11241
▁Call	-11242
▁bene	-11243
▁bran	-11244
स्ट्रे	-11245
▁टुकड़े	-11246
▁compared	-11247
lal	-11248
▁आब	-11249
quest	-11250
▁माने	-11251
luding	-11252
-200	-11253
▁जीन	-11254
erted	-11255
▁Noah	-11256
▁explo	-11257
▁psych	-11258
▁ढांचा	-11259
▁अधिकरण	-11260
▁उद्यान	-11261
▁श्रमिक	-11262
वंबर	-11263
▁bes	-11264
▁mig	-11265
▁मरा	-11266
holders	-11267
▁दक्षिणी	-11268
▁proposed	-11269
,'	-11270
वानी	-11271
▁जायेगी	-11272
▁मुक्ति	-11273
▁classes	-11274
▁elected	-11275
▁examples	-11276
US	-11277
▁जीवा	-11278
ittees	-11279
▁कामों	-11280
▁जोड़े	-11281
▁courts	-11282
▁tonnes	-11283
rier	-11284
▁mos	-11285
place	-11286
प्रभु	-11287
▁Jammu	-11288
▁minds	-11289
▁बौद्धिक	-11290
▁Application	-11291
AV	-11292
खु	-11293
▁सल	-11294
ouch	-11295
▁blue	-11296
▁अब्द	-11297
▁सरकश	-11298
▁Would	-11299
▁herit	-11300
ुत्	-11301
▁Var	-11302
▁amb	-11303
inity	-11304
▁Sind	-11305
▁Invest	-11306
▁रूपांत	-11307
▁Control	-11308
▁offline	-11309
▁कारोबार	-11310
शनी	-11311
last	-11312
यंती	-11313
▁hill	-11314
▁Brahm	-11315
▁afraid	-11316
▁weather	-11317
▁daughters	-11318
▁संक्षिप्त	-11319
▁transferred	-11320
तू	-11321
शः	-11322
सो	-11323
IME	-11324
▁पढ	-11325
▁abode	-11326
▁merciful	-11327
बेह	-11328
ियाई	-11329
▁sym	-11330
▁फ़िल्टर	-11331
▁संभावित	-11332
▁designed	-11333
had	-11334
aman	-11335
▁dog	-11336
▁Down	-11337
▁sole	-11338
▁ordinary	-11339
ादिर	-11340
▁Rajya	-11341
▁recon	-11342
▁फार्म	-11343
▁whatsoever	-11344
▁http	-11345
▁रोका	-11346
▁acquired	-11347
▁medicine	-11348
▁काफ़िरों	-11349
▁instruments	-11350
ंभव	-11351
वारी	-11352
oples	-11353
▁ज़ोर	-11354
▁देगें	-11355
▁Unknown	-11356
▁atmosphere	-11357
▁recognised	-11358
lo	-11359
ila	-11360
▁cave	-11361
▁पेशे	-11362
▁जवाहर	-11363
▁replace	-11364
▁काफिरों	-11365
▁Business	-11366
▁destruction	-11367
omic	-11368
▁deleg	-11369
▁desert	-11370
▁corruption	-11371
ूली	-11372
ishes	-11373
▁Server	-11374
▁currency	-11375
▁तंत्रिका	-11376
▁districts	-11377
▁implemented	-11378
▁छू	-11379
apur	-11380
▁Rad	-11381
▁irr	-11382
▁Fort	-11383
▁evol	-11384
▁Kumar	-11385
▁गहराई	-11386
▁पोस्ट	-11387
▁Mother	-11388
▁obtained	-11389
▁Id	-11390
▁उर्व	-11391
▁पिछली	-11392
▁recall	-11393
▁उल्लंघन	-11394
▁heritage	-11395
▁CH	-11396
जीवन	-11397
▁kil	-11398
▁पाब	-11399
▁rice	-11400
▁Mahab	-11401
▁संदाय	-11402
▁candid	-11403
▁Process	-11404
▁संचालित	-11405
anya	-11406
▁बनकर	-11407
▁struct	-11408
▁Austral	-11409
▁कोविन्द	-11410
▁patience	-11411
▁thoughts	-11412
ैम	-11413
issa	-11414
स्तानी	-11415
▁निवासी	-11416
▁unknown	-11417
▁प्रयोगशाला	-11418
-8	-11419
DU	-11420
बै	-11421
▁il	-11422
▁abide	-11423
▁वंचित	-11424
▁CON	-11425
antic	-11426
▁Bose	-11427
▁hall	-11428
▁डिजिटल	-11429
▁परम्परा	-11430
▁university	-11431
▁Legislative	-11432
टि	-11433
▁मादा	-11434
▁arrog	-11435
▁लड़की	-11436
alt	-11437
▁खिल	-11438
धानिक	-11439
▁Nare	-11440
▁train	-11441
▁dispos	-11442
▁confirm	-11443
▁appeared	-11444
▁withdraw	-11445
▁अम्	-11446
▁मिथ	-11447
▁अभिय	-11448
▁facts	-11449
▁औपचारिक	-11450
▁equipment	-11451
▁organized	-11452
.—	-11453
ww	-11454
श्‍	-11455
▁गर	-11456
▁गै	-11457
काने	-11458
क्सा	-11459
▁उभर	-11460
ankar	-11461
redit	-11462
iments	-11463
▁निकले	-11464
▁argument	-11465
▁प्रवृत्ति	-11466
▁AS	-11467
▁Nan	-11468
▁simply	-11469
▁properly	-11470
▁operating	-11471
स्थल	-11472
ormal	-11473
▁ears	-11474
▁प्रत्या	-11475
सीय	-11476
▁हॉ	-11477
▁rid	-11478
▁बेल	-11479
कर्षण	-11480
▁indig	-11481
▁मोमिन	-11482
▁factor	-11483
▁stands	-11484
▁Chinese	-11485
▁lif	-11486
▁गवर्	-11487
▁नवंबर	-11488
▁Ben	-11489
▁आखिर	-11490
▁stars	-11491
▁यहूदी	-11492
isations	-11493
ployment	-11494
▁विद्वान	-11495
▁objectives	-11496
▁yes	-11497
▁सकाः	-11498
▁हाथी	-11499
▁Joseph	-11500
iversary	-11501
▁शिक्षकों	-11502
izes	-11503
ंजलि	-11504
▁मुगल	-11505
▁sends	-11506
▁सुसंगत	-11507
▁initial	-11508
▁कोशिकाओं	-11509
▁निष्पादन	-11510
itual	-11511
▁Affairs	-11512
▁permanent	-11513
iced	-11514
ध्यक्ष	-11515
▁Middle	-11516
▁अंतराल	-11517
▁gathered	-11518
▁पदार्थों	-11519
▁maintenance	-11520
EP	-11521
लिंग	-11522
▁जीत	-11523
क्षणिक	-11524
▁तमिलना	-11525
▁पहुंचे	-11526
▁administrative	-11527
,%	-11528
22	-11529
र्ज़	-11530
▁City	-11531
▁radi	-11532
▁गर्व	-11533
▁जुड़ी	-11534
▁प्रभाग	-11535
▁ब्रह्म	-11536
▁terrible	-11537
लै	-11538
सास	-11539
izon	-11540
lets	-11541
धीरे	-11542
▁Tel	-11543
▁ध्वज	-11544
▁resist	-11545
▁फ़रिश्तों	-11546
.11	-11547
▁Ent	-11548
दृश्य	-11549
▁रुचि	-11550
▁behold	-11551
▁पुरुषों	-11552
▁बस्तियों	-11553
EC	-11554
▁Hon	-11555
▁गाँव	-11556
▁जिसपर	-11557
▁hasten	-11558
▁talking	-11559
▁नै	-11560
▁पड	-11561
िश्र	-11562
▁recip	-11563
▁initiative	-11564
will	-11565
▁Das	-11566
▁bul	-11567
▁ment	-11568
▁ताला	-11569
▁citizen	-11570
▁48	-11571
▁१५	-11572
▁आनु	-11573
▁जहाज	-11574
▁वैसा	-11575
▁attain	-11576
▁मानवता	-11577
▁आमंत्रित	-11578
▁interpret	-11579
सूर	-11580
त्ती	-11581
▁अभिन	-11582
▁पोषण	-11583
▁बचाने	-11584
▁agency	-11585
▁प्रसंस्	-11586
▁conducted	-11587
fast	-11588
ुम्ब	-11589
.2013	-11590
▁arms	-11591
▁rent	-11592
▁मनोर	-11593
▁jurisdiction	-11594
तरे	-11595
वती	-11596
▁इजा	-11597
▁Soft	-11598
▁घुमा	-11599
▁लेगा	-11600
ensions	-11601
▁archive	-11602
▁इस्लामी	-11603
▁Remember	-11604
▁conference	-11605
्द	-11606
न्य	-11607
रीन	-11608
▁Ye	-11609
▁Mult	-11610
▁Nadu	-11611
▁stre	-11612
▁असली	-11613
▁compar	-11614
▁स्वामित्व	-11615
▁fee	-11616
▁पीने	-11617
▁पौधे	-11618
▁costs	-11619
▁holds	-11620
▁पैरवी	-11621
▁lawful	-11622
▁adequate	-11623
गों	-11624
rites	-11625
▁Good	-11626
▁जयंती	-11627
▁रसायन	-11628
▁कॉन्फ़िगर	-11629
▁Ref	-11630
▁NAME	-11631
पूर्ति	-11632
▁noted	-11633
▁bounty	-11634
▁स्टेशन	-11635
▁बांग्ला	-11636
▁identity	-11637
ल्‍	-11638
▁सब्	-11639
ceeds	-11640
▁spot	-11641
▁अमरीकी	-11642
▁बाग़ों	-11643
▁हिमालय	-11644
▁1947	-11645
▁pages	-11646
▁prose	-11647
▁क़ुबूल	-11648
▁welcome	-11649
▁constant	-11650
▁गिरफ्तार	-11651
▁electricity	-11652
▁-.	-11653
▁Max	-11654
▁Command	-11655
▁inherit	-11656
▁उपलब्धि	-11657
दस्त	-11658
क्ताओं	-11659
▁ग्राफ	-11660
▁तापमान	-11661
हु	-11662
▁छत	-11663
ब्रे	-11664
▁Mugh	-11665
▁Report	-11666
▁settled	-11667
▁ब्रिटेन	-11668
▁attitude	-11669
▁Ministers	-11670
▁centuries	-11671
▁marketing	-11672
alle	-11673
▁Ali	-11674
▁cow	-11675
▁closed	-11676
▁motion	-11677
▁इसीलिए	-11678
▁परसतिश	-11679
▁जायेंगे	-11680
▁addressed	-11681
▁cris	-11682
▁throw	-11683
▁छुटकारा	-11684
▁रिकार्ड	-11685
▁स्वीकृत	-11686
▁Industrial	-11687
▁विद्यार्थी	-11688
oned	-11689
▁Dec	-11690
▁theory	-11691
▁समुचित	-11692
▁western	-11693
▁organised	-11694
▁tasks	-11695
▁Vishnu	-11696
▁dedicated	-11697
्वान	-11698
iation	-11699
▁marry	-11700
▁territory	-11701
▁identified	-11702
▁पच	-11703
▁Load	-11704
▁पार्क	-11705
▁maintained	-11706
र्फ़	-11707
▁cool	-11708
omever	-11709
▁humanity	-11710
▁प्रवृत्त	-11711
▁जू	-11712
avid	-11713
▁launch	-11714
▁enemies	-11715
▁सम्पर्क	-11716
ga	-11717
▁नोड	-11718
▁इनसे	-11719
▁संवे	-11720
▁निकलने	-11721
▁मस्जिद	-11722
▁Chapter	-11723
eal	-11724
वित	-11725
▁सवार	-11726
▁योग्यता	-11727
▁El	-11728
▁Gaz	-11729
ग्रहण	-11730
▁देशी	-11731
▁heads	-11732
▁prime	-11733
▁guarant	-11734
▁covering	-11735
▁सामान्यतः	-11736
▁disg	-11737
▁क्यू	-11738
▁कराना	-11739
कांक्षा	-11740
▁Friend	-11741
▁broken	-11742
▁thirty	-11743
▁सफलतापूर्वक	-11744
लभ	-11745
▁Alm	-11746
▁नती	-11747
दराबाद	-11748
▁बढ़ते	-11749
▁रिजर्व	-11750
▁शानदार	-11751
▁blessed	-11752
▁पहुंचने	-11753
ola	-11754
▁IC	-11755
▁१८	-11756
▁Hyder	-11757
▁brief	-11758
▁प्रास	-11759
▁comfort	-11760
▁reported	-11761
zz	-11762
▁ఇ	-11763
डकर	-11764
▁नक	-11765
ंशिक	-11766
दिरा	-11767
▁incur	-11768
▁ritual	-11769
▁finance	-11770
▁प्रोटोक	-11771
AND	-11772
शित	-11773
▁ec	-11774
ग़रज़	-11775
ख्तेयार	-11776
▁किलोमीटर	-11777
¤¬	-11778
▁Tri	-11779
▁कथन	-11780
▁इसपर	-11781
▁advanced	-11782
▁उद्देश्यों	-11783
▁सहन	-11784
▁गहरे	-11785
▁जुड़	-11786
▁समाह	-11787
ङ्	-11788
▁SP	-11789
amin	-11790
पानी	-11791
ourse	-11792
▁inval	-11793
▁willed	-11794
▁तरीकों	-11795
▁devotion	-11796
▁transaction	-11797
प्न	-11798
▁अमल	-11799
कीर्ण	-11800
▁crow	-11801
▁center	-11802
▁contents	-11803
▁creative	-11804
▁Kan	-11805
▁Rest	-11806
▁पूछो	-11807
▁Files	-11808
▁bottom	-11809
▁कोलकाता	-11810
▁substance	-11811
पेट	-11812
▁wr	-11813
▁बचत	-11814
▁जनरल	-11815
▁माध्य	-11816
▁turning	-11817
अब	-11818
ster	-11819
▁sho	-11820
▁blame	-11821
▁बुलाया	-11822
▁स्थाना	-11823
▁feature	-11824
▁flowers	-11825
▁प्रोजेक्ट	-11826
ूष	-11827
चिक	-11828
बूर	-11829
▁mad	-11830
▁टर्म	-11831
▁सरपर	-11832
▁fourth	-11833
.10	-11834
सीसी	-11835
ोनें	-11836
▁ble	-11837
▁tim	-11838
▁Although	-11839
yl	-11840
ँचा	-11841
िन्त	-11842
▁10.	-11843
▁Kab	-11844
▁aims	-11845
▁प्रसंग	-11846
MP	-11847
▁ఉ	-11848
▁स्मरण	-11849
▁eligible	-11850
▁grateful	-11851
▁समुदायों	-11852
▁रवीन्द्रनाथ	-11853
odh	-11854
क्की	-11855
कियों	-11856
▁गर्भ	-11857
▁चन्द	-11858
▁जापान	-11859
▁senior	-11860
▁आसमानों	-11861
▁Christian	-11862
arya	-11863
lies	-11864
▁मॉड	-11865
▁रानी	-11866
▁brows	-11867
▁quickly	-11868
▁branches	-11869
▁सिद्धांतों	-11870
▁configuration	-11871
धक	-11872
ంచ	-11873
ंसिल	-11874
▁URI	-11875
▁गौरव	-11876
▁sweet	-11877
▁रहमान	-11878
राष्ट्र	-11879
▁couple	-11880
▁peoples	-11881
12	-11882
roc	-11883
▁sad	-11884
▁चट्ट	-11885
▁मौलिक	-11886
▁मित्रों	-11887
▁इंजीनियर	-11888
.12	-11889
ette	-11890
oring	-11891
▁आश्व	-11892
▁आज़मा	-11893
▁कर्ता	-11894
▁ट्रैक	-11895
▁Engine	-11896
luded	-11897
ब्लिक	-11898
▁गोया	-11899
▁Whoever	-11900
▁త	-11901
च्चे	-11902
▁Flag	-11903
▁zero	-11904
▁simpl	-11905
▁सीखने	-11906
▁strike	-11907
▁स्वभाव	-11908
▁pu	-11909
▁Jaw	-11910
▁Musa	-11911
▁font	-11912
▁wage	-11913
▁काले	-11914
▁विष्णु	-11915
▁digital	-11916
▁whenever	-11917
▁इलेक्ट्रॉनिक	-11918
IST	-11919
umin	-11920
▁अर्ज़	-11921
▁फ्रांस	-11922
▁offices	-11923
▁प्रकाशना	-11924
▁उत्तरदायी	-11925
▁Sard	-11926
▁अन्तिम	-11927
▁पहाड़ी	-11928
▁arrived	-11929
▁enhance	-11930
▁prayers	-11931
▁परिभाषा	-11932
▁Regional	-11933
▁starting	-11934
▁प्राधिकार	-11935
्मी	-11936
ping	-11937
stood	-11938
▁License	-11939
▁अख	-11940
▁चमक	-11941
▁माय	-11942
▁1992	-11943
क़ुरान	-11944
▁Judge	-11945
▁sanct	-11946
▁जानकर	-11947
▁seemed	-11948
▁markets	-11949
▁संस्थापित	-11950
▁governments	-11951
FC	-11952
▁LD	-11953
anta	-11954
▁सकारात्मक	-11955
डन	-11956
▁User	-11957
▁idol	-11958
▁coast	-11959
▁Orissa	-11960
▁अमरीका	-11961
▁आरंभिक	-11962
▁Gr	-11963
▁Ka	-11964
▁SC	-11965
▁Jag	-11966
▁एयर	-11967
▁खून	-11968
▁बहस	-11969
▁त्रि	-11970
▁मशीनरी	-11971
▁pilgrim	-11972
▁extremely	-11973
▁वैज्ञानिकों	-11974
बला	-11975
▁08	-11976
▁9.	-11977
roll	-11978
▁खनि	-11979
▁नान	-11980
▁1000	-11981
▁orph	-11982
▁आचरण	-11983
▁mostly	-11984
//	-11985
प्ट	-11986
atre	-11987
शंकर	-11988
▁memo	-11989
▁मानी	-11990
▁Swami	-11991
▁tools	-11992
▁चिन्ह	-11993
▁Similar	-11994
▁संशोधित	-11995
rd	-11996
▁AP	-11997
unction	-11998
▁इन्सान	-11999
▁respective	-12000
pet	-12001
ज़ाम	-12002
ार्इ	-12003
▁category	-12004
▁principal	-12005
▁processes	-12006
ym	-12007
पादित	-12008
▁देगी	-12009
▁परिक	-12010
▁बहाद	-12011
▁संतु	-12012
▁adjust	-12013
▁temperature	-12014
van	-12015
ंजा	-12016
बूती	-12017
▁सोने	-12018
▁Close	-12019
▁अकेला	-12020
▁पंडित	-12021
▁Windows	-12022
▁environmental	-12023
-3	-12024
तोष	-12025
book	-12026
▁10,	-12027
▁alt	-12028
▁नाइ	-12029
▁Best	-12030
▁कीजिए	-12031
▁विनाश	-12032
▁जातियों	-12033
श्रे	-12034
▁परो	-12035
▁फ्लै	-12036
ansion	-12037
▁डराने	-12038
▁मानता	-12039
▁Foundation	-12040
ंतिक	-12041
▁पोत	-12042
rator	-12043
▁roof	-12044
▁बिता	-12045
▁मासिक	-12046
▁तैयारी	-12047
मुच	-12048
▁तह	-12049
cont	-12050
umer	-12051
▁उपे	-12052
osers	-12053
▁sequ	-12054
▁categ	-12055
▁ज़कात	-12056
▁forgot	-12057
▁चीज़ें	-12058
▁felicit	-12059
▁इम	-12060
▁Ter	-12061
▁भर्ती	-12062
▁वापसी	-12063
▁occurred	-12064
▁tomorrow	-12065
tes	-12066
▁hrs	-12067
ndered	-12068
▁Force	-12069
▁width	-12070
▁क़रीब	-12071
▁commod	-12072
▁journal	-12073
▁elections	-12074
▁organizations	-12075
▁बीस	-12076
marks	-12077
▁Sikh	-12078
brance	-12079
▁links	-12080
▁वारिस	-12081
▁मददगार	-12082
▁explain	-12083
▁अनुपालन	-12084
▁वाक़िफ़	-12085
▁thereafter	-12086
▁Agriculture	-12087
LE	-12088
లో	-12089
गारी	-12090
▁श्व	-12091
▁rout	-12092
▁उतनी	-12093
▁सहारा	-12094
▁सोचते	-12095
▁पीड़ित	-12096
▁हैदराबाद	-12097
▁movements	-12098
▁काश	-12099
▁सिंध	-12100
▁discl	-12101
▁लोकता	-12102
issions	-12103
▁asking	-12104
▁तुर्की	-12105
▁व्यस्त	-12106
▁सम्बंध	-12107
▁capable	-12108
▁analysis	-12109
▁अत्याचार	-12110
OT	-12111
xic	-12112
elve	-12113
▁खबर	-12114
osite	-12115
osure	-12116
▁Adam	-12117
▁Exec	-12118
▁बाहम	-12119
▁Small	-12120
▁Nature	-12121
▁कलाकार	-12122
▁अनुसूची	-12123
▁इंजीनिय	-12124
टाई	-12125
▁Pay	-12126
▁नवा	-12127
anish	-12128
पट्टी	-12129
▁पांड	-12130
▁मंडल	-12131
acific	-12132
▁fertil	-12133
▁वर्णित	-12134
▁cricket	-12135
▁differences	-12136
बूझ	-12137
मुझे	-12138
▁Bin	-12139
▁अलब	-12140
▁mock	-12141
▁मातृ	-12142
ladesh	-12143
▁Rural	-12144
▁leads	-12145
▁Choose	-12146
▁परिवेश	-12147
▁Univers	-12148
▁desktop	-12149
ंधन	-12150
onds	-12151
▁Anj	-12152
▁Link	-12153
▁Forest	-12154
▁आउटपुट	-12155
▁एकीकृत	-12156
▁ईमानवाले	-12157
je	-12158
खाव	-12159
▁बहा	-12160
.2019	-12161
▁runs	-12162
▁दरिया	-12163
▁Compan	-12164
▁judgment	-12165
▁committee	-12166
▁temporary	-12167
IG	-12168
agh	-12169
▁झुक	-12170
▁सकी	-12171
▁आँखों	-12172
▁properties	-12173
gor	-12174
डिंग	-12175
▁bind	-12176
▁gate	-12177
▁Produ	-12178
▁सम्रा	-12179
▁filter	-12180
wan	-12181
hets	-12182
▁फिट	-12183
▁बडी	-12184
▁वास	-12185
▁दुर्भाग्य	-12186
याद	-12187
ंबित	-12188
▁दाम	-12189
▁suit	-12190
▁औरतें	-12191
▁निवार	-12192
▁comment	-12193
▁upgr	-12194
▁नस्ल	-12195
▁पिला	-12196
▁रूपों	-12197
▁सम्मानित	-12198
ज़ि	-12199
room	-12200
▁shad	-12201
▁अग्नि	-12202
atio	-12203
othes	-12204
▁oblig	-12205
▁surre	-12206
▁French	-12207
▁डिग्री	-12208
स्ट्रेलिया	-12209
▁reveal	-12210
▁मुद्दे	-12211
▁सावधानी	-12212
▁whomever	-12213
▁तमिलनाडु	-12214
▁अट	-12215
हँसी	-12216
▁Sud	-12217
▁Muse	-12218
ranath	-12219
▁plans	-12220
▁डालें	-12221
याल	-12222
▁अफग	-12223
बोर्ड	-12224
्रोतों	-12225
▁liquid	-12226
▁दूरस्थ	-12227
▁entirely	-12228
hus	-12229
▁पट	-12230
NAME	-12231
पोषण	-12232
▁गाँ	-12233
▁Read	-12234
▁रखती	-12235
▁pride	-12236
▁लिखें	-12237
▁confer	-12238
▁Article	-12239
▁Believers	-12240
▁अत्याचारी	-12241
▁represents	-12242
▁Independence	-12243
yr	-12244
है	-12245
बाजी	-12246
▁चाँ	-12247
▁फीस	-12248
ख़बरी	-12249
▁गुजर	-12250
▁फ्रे	-12251
▁union	-12252
▁Regist	-12253
▁Eastern	-12254
▁displayed	-12255
▁हस्तक्षेप	-12256
ोजक	-12257
▁धम	-12258
समें	-12259
▁पोजी	-12260
▁सकेगी	-12261
▁crisis	-12262
▁penalty	-12263
▁निकालने	-12264
¤¶	-12265
▁झि	-12266
अच्छ	-12267
▁mel	-12268
ख़ेरत	-12269
▁aside	-12270
▁कमज़ोर	-12271
▁न्यायिक	-12272
▁सरपरस्त	-12273
▁informed	-12274
▁UT	-12275
▁एल्	-12276
▁Vice	-12277
▁pull	-12278
▁तनाव	-12279
▁पैसा	-12280
▁इनपुट	-12281
▁समाहित	-12282
▁speaking	-12283
99	-12284
ంట	-12285
uli	-12286
lude	-12287
राशि	-12288
ष्कार	-12289
▁hurt	-12290
▁ज़रिए	-12291
▁सिंचाई	-12292
entially	-12293
▁immense	-12294
▁disbelief	-12295
UM	-12296
केल	-12297
ैंक	-12298
oked	-12299
न्हीं	-12300
▁पंचाय	-12301
▁बोलते	-12302
raction	-12303
▁deeply	-12304
▁sexual	-12305
▁undertaken	-12306
▁हिंदुस्तान	-12307
mary	-12308
▁Mos	-12309
▁फज़ल	-12310
▁absence	-12311
▁महाराजा	-12312
hel	-12313
पंथी	-12314
हारिक	-12315
▁inhab	-12316
▁loans	-12317
▁walls	-12318
▁डालते	-12319
▁humili	-12320
▁functioning	-12321
कर्म	-12322
aints	-12323
विचार	-12324
▁अनाज	-12325
▁Signs	-12326
▁backs	-12327
▁worlds	-12328
▁उच्चतर	-12329
▁Speaker	-12330
▁शैक्षणिक	-12331
ौरन	-12332
▁hom	-12333
olkata	-12334
▁accused	-12335
NA	-12336
जिन	-12337
क्कर	-12338
▁fed	-12339
▁map	-12340
quiry	-12341
च्छिक	-12342
▁curs	-12343
▁परिचित	-12344
xx	-12345
निस	-12346
▁अवय	-12347
▁Look	-12348
▁poets	-12349
ट्स	-12350
सूची	-12351
isher	-12352
▁pled	-12353
▁सैन्य	-12354
▁expert	-12355
▁जादूगर	-12356
-#-#-#-#	-12357
▁अवधारणा	-12358
ानत	-12359
ంది	-12360
▁आँक	-12361
▁कोष	-12362
▁पाप	-12363
▁इच्छ	-12364
▁मुख़	-12365
▁हज़ार	-12366
▁illust	-12367
▁calling	-12368
▁दर्शाता	-12369
▁creatures	-12370
edd	-12371
oman	-12372
▁परत	-12373
ports	-12374
▁1998	-12375
▁fuel	-12376
▁आबंट	-12377
▁आमाल	-12378
▁रखकर	-12379
▁संतुलन	-12380
▁millions	-12381
▁प्रतिदिन	-12382
▁#-#-#-#-#	-12383
▁sor	-12384
▁horse	-12385
▁सचमुच	-12386
▁Nations	-12387
▁साक्ष्य	-12388
▁Settings	-12389
▁accompan	-12390
▁sculpture	-12391
▁186	-12392
▁End	-12393
asant	-12394
▁कॉपी	-12395
▁पाता	-12396
asters	-12397
संरचना	-12398
▁लिखते	-12399
▁व्युत्	-12400
▁विद्रोह	-12401
▁समितियों	-12402
’,	-12403
▁Az	-12404
सलों	-12405
▁अकार	-12406
निर्भर	-12407
▁Aware	-12408
▁dynam	-12409
▁rebell	-12410
▁व्यवस्थित	-12411
OM	-12412
gent	-12413
पत्ति	-12414
▁उन्म	-12415
aviour	-12416
▁Divine	-12417
▁survey	-12418
“”	-12419
गरी	-12420
akti	-12421
र्जन	-12422
सेना	-12423
ंतरित	-12424
▁race	-12425
fortun	-12426
▁concl	-12427
▁career	-12428
▁sorrow	-12429
▁Options	-12430
▁expenses	-12431
▁architecture	-12432
संघ	-12433
న్న	-12434
pers	-12435
▁Kor	-12436
▁जाह	-12437
▁fifty	-12438
▁stick	-12439
▁संभाल	-12440
▁applicable	-12441
ART	-12442
क्‍	-12443
लित	-12444
ल्य	-12445
king	-12446
▁Perm	-12447
▁बनना	-12448
दाताओं	-12449
▁लंबाई	-12450
▁transp	-12451
▁नवम्बर	-12452
▁हजारों	-12453
ेंडर	-12454
▁झुका	-12455
▁narrow	-12456
▁Judgment	-12457
▁वास्तविकता	-12458
.09	-12459
क्राम	-12460
▁एकदम	-12461
▁बोला	-12462
▁हमला	-12463
▁Limited	-12464
▁रिकॉर्ड	-12465
▁employee	-12466
▁Hyderabad	-12467
ग्न	-12468
०००	-12469
▁Bur	-12470
▁सतत	-12471
▁sees	-12472
▁श्वे	-12473
active	-12474
▁जितने	-12475
व्यवहार	-12476
▁losers	-12477
ॉग	-12478
time	-12479
▁कायम	-12480
▁खतरे	-12481
edient	-12482
▁संदेय	-12483
▁महाभारत	-12484
▁प्रक्रियाओं	-12485
nov	-12486
▁गुणा	-12487
▁पदों	-12488
कलापों	-12489
▁ज़रूरत	-12490
▁belonging	-12491
▁possession	-12492
▁automatically	-12493
RE	-12494
ena	-12495
pto	-12496
▁इस्	-12497
ested	-12498
▁वरीय	-12499
▁deity	-12500
▁संतोष	-12501
ourable	-12502
▁दीक्षा	-12503
▁compensation	-12504
कन	-12505
शोथ	-12506
▁रॉ	-12507
iform	-12508
plete	-12509
▁Food	-12510
▁शर्त	-12511
▁fulfil	-12512
▁equally	-12513
▁evolution	-12514
▁Ban	-12515
▁अजी	-12516
▁Take	-12517
▁कुफ्र	-12518
▁Awards	-12519
▁flower	-12520
▁दाहिने	-12521
▁fulfilled	-12522
PC	-12523
దు	-12524
लास	-12525
ासा	-12526
▁Gan	-12527
▁absor	-12528
▁solid	-12529
▁अभिदाता	-12530
▁Principal	-12531
wh	-12532
.08	-12533
▁1"	-12534
▁ends	-12535
▁कार्बन	-12536
▁पोजीशन	-12537
तुम्हारे	-12538
▁formation	-12539
नन	-12540
▁hit	-12541
▁बंदर	-12542
▁सिर्फ़	-12543
▁Institut	-12544
apa	-12545
प्रद	-12546
▁पोल	-12547
▁Oper	-12548
▁Tell	-12549
▁उपास	-12550
▁Apost	-12551
▁pregn	-12552
▁तकलीफ	-12553
▁grieve	-12554
▁refused	-12555
▁apostles	-12556
ीदा	-12557
▁शोर	-12558
otton	-12559
wered	-12560
▁Allow	-12561
▁alive	-12562
▁aspir	-12563
▁पुकारा	-12564
▁गतिविधि	-12565
▁outstanding	-12566
▁उठे	-12567
urved	-12568
▁pick	-12569
▁हटाएँ	-12570
▁विश्वसनीय	-12571
▁sustenance	-12572
▁प्रसंस्करण	-12573
oll	-12574
ड़ना	-12575
नहीं	-12576
▁घुट	-12577
देशों	-12578
criber	-12579
▁radio	-12580
▁दरबार	-12581
▁Subhas	-12582
▁वस्तुत	-12583
▁Certain	-12584
▁Line	-12585
▁colon	-12586
▁stress	-12587
▁अभ्यास	-12588
▁ढूंढें	-12589
▁solutions	-12590
▁interested	-12591
yal	-12592
▁जॉ	-12593
ipes	-12594
र्दू	-12595
लांग	-12596
▁Tab	-12597
▁ढूँ	-12598
▁पान	-12599
स्पति	-12600
विमर्श	-12601
▁decor	-12602
▁अंकित	-12603
▁प्रको	-12604
▁border	-12605
▁owners	-12606
▁apostle	-12607
▁proposal	-12608
▁ग्राहकों	-12609
▁प्रश्नों	-12610
▁sustainable	-12611
ख्य	-12612
ibly	-12613
uity	-12614
orter	-12615
▁दलील	-12616
▁prove	-12617
▁कामया	-12618
▁explained	-12619
▁commission	-12620
य्य	-12621
▁tro	-12622
agers	-12623
▁आकलन	-12624
▁लाएँ	-12625
▁सच्ची	-12626
▁formal	-12627
▁trouble	-12628
operative	-12629
▁wherever	-12630
▁प्रतिकूल	-12631
▁Fr	-12632
ename	-12633
▁Tool	-12634
▁Earth	-12635
▁400	-12636
▁इंत	-12637
▁wear	-12638
▁रामा	-12639
▁एजेंस	-12640
▁पथभ्र	-12641
▁Museum	-12642
▁विक्रय	-12643
▁Support	-12644
▁dealing	-12645
चु	-12646
ming	-12647
देशक	-12648
▁core	-12649
▁कारक	-12650
▁arbit	-12651
▁perce	-12652
▁offers	-12653
▁स्वप्न	-12654
▁deleted	-12655
▁प्रतिफल	-12656
▁contributions	-12657
फाई	-12658
ज़ख़	-12659
देशी	-12660
▁steel	-12661
▁लगाते	-12662
▁equity	-12663
िनल	-12664
्टा	-12665
▁२०	-12666
▁भंग	-12667
▁कैसी	-12668
▁pieces	-12669
▁प्रांत	-12670
▁Password	-12671
▁believes	-12672
▁सरी	-12673
▁निष्ठा	-12674
urb	-12675
▁तिल	-12676
▁कैंसर	-12677
▁दर्जे	-12678
▁बताता	-12679
▁मिश्रण	-12680
▁leaving	-12681
▁क्रियान्व	-12682
▁opposition	-12683
▁65	-12684
edia	-12685
▁unp	-12686
▁कहां	-12687
▁शांत	-12688
▁strive	-12689
▁wrongdoers	-12690
िरो	-12691
रखाव	-12692
ूकता	-12693
▁sam	-12694
▁फार	-12695
enous	-12696
▁Video	-12697
▁स्टेट	-12698
▁Chrome	-12699
तापूर्वक	-12700
▁college	-12701
▁Narendra	-12702
▁customer	-12703
▁allowance	-12704
▁proportion	-12705
▁www	-12706
▁वसू	-12707
▁holy	-12708
▁क्रमा	-12709
▁understood	-12710
▁distinguished	-12711
टेल	-12712
बों	-12713
arsh	-12714
▁bag	-12715
्रेडिट	-12716
▁impart	-12717
ny	-12718
uru	-12719
चन्द	-12720
ूनों	-12721
▁hur	-12722
▁Jesus	-12723
▁spect	-12724
▁संभवतः	-12725
▁directed	-12726
11	-12727
▁Fa	-12728
▁बेट	-12729
द्दीन	-12730
▁यानी	-12731
▁twice	-12732
▁Kolkata	-12733
▁composed	-12734
▁उल्लिखित	-12735
▁chargeable	-12736
PRO	-12737
पीएस	-12738
स्टी	-12739
▁Award	-12740
▁दुकान	-12741
▁प्रसाद	-12742
▁यथार्थ	-12743
▁Pacific	-12744
▁Scheduled	-12745
▁transactions	-12746
छो	-12747
oli	-12748
aram	-12749
illa	-12750
बारी	-12751
▁1950	-12752
▁गणित	-12753
▁रोगों	-12754
▁beneath	-12755
alam	-12756
जीवी	-12757
oding	-12758
वाहित	-12759
▁Tele	-12760
▁legs	-12761
▁Light	-12762
▁labor	-12763
▁towns	-12764
▁Access	-12765
▁stones	-12766
▁soldiers	-12767
▁improvement	-12768
▁1948	-12769
▁bones	-12770
▁जर्मनी	-12771
▁Related	-12772
▁imagine	-12773
▁Association	-12774
▁instructions	-12775
)!	-12776
▁2)	-12777
▁kn	-12778
abet	-12779
▁Lal	-12780
▁जमी	-12781
▁bone	-12782
▁update	-12783
▁wicked	-12784
▁Further	-12785
▁Through	-12786
फेसर	-12787
▁lic	-12788
धारित	-12789
सम्बर	-12790
▁जंगल	-12791
▁मान्य	-12792
▁fought	-12793
▁Apostle	-12794
▁accompl	-12795
▁invited	-12796
▁tourism	-12797
▁initiated	-12798
Re	-12799
DUCT	-12800
▁डूब	-12801
▁Hand	-12802
▁grew	-12803
▁टेक्	-12804
▁मधुम	-12805
▁मिस्र	-12806
▁tissue	-12807
▁स्तरों	-12808
ेस	-12809
ORS	-12810
asi	-12811
वीडी	-12812
▁मौका	-12813
theists	-12814
▁पसंदीदा	-12815
▁Economic	-12816
▁Mohammed	-12817
▁Something	-12818
▁promoting	-12819
▁Bangladesh	-12820
col	-12821
aved	-12822
plom	-12823
pring	-12824
▁याची	-12825
▁निकाले	-12826
ार्थियों	-12827
ोंक	-12828
उसके	-12829
hetic	-12830
▁Geor	-12831
▁लाखों	-12832
▁मंजूरी	-12833
▁immediate	-12834
भौ	-12835
षद्	-12836
▁deed	-12837
▁औजार	-12838
▁राजक	-12839
▁गुणों	-12840
▁जानना	-12841
▁conven	-12842
ानिस्तान	-12843
कलाप	-12844
▁Tar	-12845
▁flat	-12846
▁हलाल	-12847
▁बताते	-12848
▁मक्का	-12849
▁विभेद	-12850
▁twelve	-12851
▁admitted	-12852
▁remaining	-12853
▁प्रासंगिक	-12854
40	-12855
De	-12856
तन्य	-12857
▁12.	-12858
▁hat	-12859
orthy	-12860
▁Never	-12861
▁अभिगम	-12862
▁उन्हे	-12863
▁rising	-12864
पाई	-12865
▁Has	-12866
लियों	-12867
▁नामः	-12868
▁delib	-12869
▁Mughal	-12870
▁specify	-12871
▁strategy	-12872
▁व्यापारी	-12873
Why	-12874
स्‍त	-12875
▁चलती	-12876
▁उत्तेज	-12877
▁Industry	-12878
▁prostrate	-12879
pes	-12880
लिये	-12881
▁Keep	-12882
▁clay	-12883
▁Build	-12884
▁आह्वान	-12885
▁depends	-12886
▁harvest	-12887
▁गांधीजी	-12888
▁कम्प्यूटर	-12889
▁Sl	-12890
▁vig	-12891
पोर्ट	-12892
▁Joint	-12893
▁renew	-12894
▁Deputy	-12895
▁आदमियों	-12896
▁सिद्धान्त	-12897
▁contribute	-12898
ien	-12899
▁भूत	-12900
गोलिक	-12901
▁कर्ण	-12902
▁चलाया	-12903
▁मुताब	-12904
▁theirs	-12905
▁pension	-12906
▁revenue	-12907
▁अलबत्ता	-12908
▁Software	-12909
विन	-12910
ायें	-12911
▁Mac	-12912
▁era	-12913
▁ves	-12914
▁Trade	-12915
▁दशकों	-12916
▁Christians	-12917
ेड	-12918
▁Plug	-12919
▁Urdu	-12920
▁विनय	-12921
▁owner	-12922
▁scope	-12923
aration	-12924
▁Status	-12925
▁प्रजनन	-12926
▁sincere	-12927
▁Province	-12928
▁सम्पत्ति	-12929
▁Chen	-12930
▁Pras	-12931
▁अक्ट	-12932
▁स्वि	-12933
▁हार्ड	-12934
▁tribal	-12935
▁क्रमशः	-12936
▁विडियो	-12937
▁हाज़िर	-12938
▁council	-12939
OME	-12940
णिक	-12941
▁१०	-12942
▁fix	-12943
▁hyd	-12944
▁York	-12945
▁shop	-12946
▁टाइप	-12947
▁दार्	-12948
uments	-12949
▁सूचित	-12950
▁slight	-12951
▁victim	-12952
▁railway	-12953
▁पुस्तकें	-12954
▁buildings	-12955
▁recognition	-12956
osa	-12957
▁लानत	-12958
▁लिपि	-12959
▁thread	-12960
▁भगवान्	-12961
▁लेखकों	-12962
▁Persian	-12963
▁drinking	-12964
▁hypocrites	-12965
▁गुरू	-12966
▁Garden	-12967
▁Israeli	-12968
▁विभागों	-12969
▁श्रीमती	-12970
ds	-12971
END	-12972
ड्र	-12973
▁Rece	-12974
▁ईरान	-12975
▁चावल	-12976
▁तात्	-12977
▁पाकी	-12978
▁शराब	-12979
earing	-12980
ensity	-12981
▁glory	-12982
▁शिल्प	-12983
▁overall	-12984
▁recited	-12985
▁Insurance	-12986
▁?	-12987
kan	-12988
that	-12989
remony	-12990
▁actor	-12991
▁drown	-12992
▁split	-12993
▁लिखना	-12994
▁Sardar	-12995
▁befall	-12996
▁render	-12997
▁क्रेडिट	-12998
▁intelligence	-12999
డు	-13000
▁onto	-13001
▁आश्र	-13002
▁lying	-13003
▁एजेंसी	-13004
▁spr	-13005
▁दुःख	-13006
father	-13007
▁पक्षी	-13008
▁ग्रस्त	-13009
▁संपन्न	-13010
▁Mahabhar	-13011
▁Schedule	-13012
▁equality	-13013
ato	-13014
aud	-13015
▁फौ	-13016
सिंह	-13017
▁अहं	-13018
urally	-13019
▁chain	-13020
▁बताने	-13021
▁Jawahar	-13022
▁writers	-13023
▁सम्बन्धित	-13024
iger	-13025
▁hun	-13026
▁आधा	-13027
▁नवी	-13028
▁बडे	-13029
▁Unit	-13030
▁घनिष्ठ	-13031
▁प्रतिल	-13032
▁exports	-13033
▁framework	-13034
withstanding	-13035
▁कट्ट	-13036
▁साहब	-13037
▁Green	-13038
▁क़ाबू	-13039
▁समझना	-13040
▁continues	-13041
▁religions	-13042
▁impossible	-13043
▁Afghanistan	-13044
jud	-13045
tic	-13046
▁tea	-13047
▁सड़	-13048
▁गुज़	-13049
▁लड़का	-13050
▁component	-13051
¥	-13052
इयां	-13053
▁LDAP	-13054
▁palm	-13055
▁अतीत	-13056
▁उग्र	-13057
▁ज़बर	-13058
▁सेंट	-13059
▁अंततः	-13060
▁गर्मी	-13061
▁Common	-13062
▁obtain	-13063
पैग़म्बर	-13064
70	-13065
षे	-13066
ियॉ	-13067
काया	-13068
दादा	-13069
▁औषध	-13070
▁राहे	-13071
स्परिक	-13072
▁depth	-13073
▁flood	-13074
▁विवरणी	-13075
▁counsel	-13076
▁trading	-13077
▁offering	-13078
▁contemporary	-13079
cts	-13080
▁wa	-13081
▁कस	-13082
चेंज	-13083
▁गंत	-13084
▁cere	-13085
▁मोटर	-13086
uality	-13087
▁Editor	-13088
▁उपायों	-13089
▁judgement	-13090
▁respectively	-13091
emic	-13092
▁bug	-13093
▁ocean	-13094
▁flight	-13095
▁stayed	-13096
▁अनुमोदित	-13097
▁जागरूकता	-13098
▁satisfied	-13099
▁न्यायालयों	-13100
▁communications	-13101
ads	-13102
डीई	-13103
▁1996	-13104
▁shar	-13105
▁कहें	-13106
▁clouds	-13107
▁street	-13108
▁sisters	-13109
▁Document	-13110
LS	-13111
appe	-13112
azing	-13113
▁Full	-13114
▁jobs	-13115
coming	-13116
▁breed	-13117
▁index	-13118
▁सच्चाई	-13119
▁consumer	-13120
▁definite	-13121
▁उन्होनें	-13122
मौ	-13123
mic	-13124
▁गईं	-13125
▁टाल	-13126
▁gift	-13127
▁बनता	-13128
▁Later	-13129
▁alarm	-13130
▁तीर्थ	-13131
▁waters	-13132
▁मज़बूत	-13133
▁detailed	-13134
▁settlement	-13135
▁लोकतांत्रिक	-13136
▁mov	-13137
▁लार	-13138
owing	-13139
ushed	-13140
र्वेद	-13141
▁thick	-13142
▁recite	-13143
▁पुराना	-13144
▁प्रशांत	-13145
▁प्रभार्य	-13146
▁प्रोफेसर	-13147
▁personality	-13148
▁नरे	-13149
▁Note	-13150
▁layer	-13151
▁उठाना	-13152
▁तीसरा	-13153
▁driven	-13154
▁tongue	-13155
▁diverse	-13156
▁पुकारते	-13157
तब	-13158
▁Babu	-13159
▁डालने	-13160
▁संपदा	-13161
▁चैतन्य	-13162
hibition	-13163
▁भौगोलिक	-13164
▁answered	-13165
▁restrict	-13166
वाँ	-13167
उनकी	-13168
▁Ara	-13169
▁hen	-13170
▁वाइ	-13171
▁lamp	-13172
▁pane	-13173
▁अद्व	-13174
▁आपदा	-13175
▁विजे	-13176
ashing	-13177
▁drama	-13178
▁आंशिक	-13179
▁acknow	-13180
▁बाज़ार	-13181
▁प्रतिमा	-13182
▁repeated	-13183
▁icon	-13184
▁Shiva	-13185
▁budget	-13186
▁अपराधी	-13187
▁क़ादिर	-13188
▁intended	-13189
://	-13190
ोरि	-13191
care	-13192
वेशन	-13193
iliar	-13194
▁अमान	-13195
▁ज्यो	-13196
▁निधन	-13197
ब्रेरी	-13198
▁सहयोगी	-13199
▁सुन्दर	-13200
▁किन्हीं	-13201
▁विद्वानों	-13202
▁KDE	-13203
▁rub	-13204
▁बरस	-13205
▁rect	-13206
▁David	-13207
▁फायदे	-13208
▁invalid	-13209
▁अक्टूबर	-13210
▁distributed	-13211
ँग	-13212
▁(5	-13213
lock	-13214
inder	-13215
▁1990	-13216
▁Noble	-13217
▁सर्वि	-13218
▁facing	-13219
▁प्रशास	-13220
▁realize	-13221
▁माइक्रो	-13222
ाफ	-13223
▁खज	-13224
oval	-13225
▁करम	-13226
▁डाली	-13227
▁भरें	-13228
▁मेहन	-13229
▁रिज़	-13230
ोक्ताओं	-13231
▁Except	-13232
▁Global	-13233
▁employed	-13234
▁facilitate	-13235
▁availability	-13236
ooth	-13237
ruit	-13238
ल्लम	-13239
▁Vol	-13240
▁सिं	-13241
▁gall	-13242
▁seeds	-13243
▁charity	-13244
▁अंग्रेज	-13245
▁customers	-13246
ప్	-13247
▁ज्व	-13248
while	-13249
▁जाया	-13250
▁दीजिए	-13251
▁तत्त्व	-13252
▁देखेंगे	-13253
▁जवाहरलाल	-13254
▁फलस्वरूप	-13255
कना	-13256
▁43	-13257
ords	-13258
भक्त	-13259
▁Ans	-13260
▁{1}	-13261
▁Army	-13262
▁sets	-13263
▁ग्रे	-13264
▁Table	-13265
▁floor	-13266
▁तीनों	-13267
▁shaped	-13268
▁Disable	-13269
▁आधारभूत	-13270
▁आरक्षित	-13271
▁राजभाषा	-13272
▁प्रभावशाली	-13273
Ad	-13274
rer	-13275
atar	-13276
▁bat	-13277
▁अहि	-13278
ector	-13279
विष्ट	-13280
▁baby	-13281
▁पड़ो	-13282
▁भरने	-13283
▁उतारी	-13284
▁तसबीह	-13285
▁hardly	-13286
▁वरीयता	-13287
▁तम	-13288
न्तर	-13289
▁fle	-13290
▁मेह	-13291
व्यों	-13292
▁करूँ	-13293
▁यहीं	-13294
▁भाग्य	-13295
▁दुश्मन	-13296
▁संगठित	-13297
▁behaviour	-13298
▁प्रस्तावित	-13299
▁—	-13300
mun	-13301
ona	-13302
▁सिक	-13303
▁कृपा	-13304
▁उर्दू	-13305
▁सालों	-13306
दायित्व	-13307
▁overcome	-13308
▁neighbour	-13309
्रीम	-13310
▁Vir	-13311
▁(200	-13312
▁Term	-13313
▁busy	-13314
▁अर्ज	-13315
▁stake	-13316
▁carbon	-13317
▁firmly	-13318
గా	-13319
पेश	-13320
▁Rab	-13321
▁अमर	-13322
▁प्राप	-13323
▁विवेक	-13324
▁begins	-13325
▁अर्पित	-13326
▁celebrated	-13327
▁व्यावहारिक	-13328
भुत	-13329
▁Count	-13330
▁ships	-13331
version	-13332
▁breath	-13333
▁computing	-13334
▁प्रतिष्ठा	-13335
▁revelation	-13336
rec	-13337
काएँ	-13338
श्ता	-13339
▁डिब	-13340
▁Main	-13341
▁Malay	-13342
▁दूँगा	-13343
▁निगाह	-13344
▁Member	-13345
▁difficulty	-13346
AGE	-13347
thi	-13348
नेह	-13349
▁Lt	-13350
what	-13351
हारी	-13352
algam	-13353
▁lect	-13354
▁आपसी	-13355
Indeed	-13356
▁वसूली	-13357
आरए	-13358
▁मक़	-13359
वस्तु	-13360
ounded	-13361
▁प्लेट	-13362
▁वर्मा	-13363
edience	-13364
ishment	-13365
▁Madhya	-13366
▁affair	-13367
▁नदियों	-13368
▁वैकल्प	-13369
▁संगणना	-13370
▁communal	-13371
zy	-13372
▁ष	-13373
Who	-13374
anka	-13375
लेखन	-13376
्‍या	-13377
▁Lat	-13378
▁झूठे	-13379
▁वाहन	-13380
▁Local	-13381
▁starts	-13382
▁preview	-13383
▁hardship	-13384
▁efficiency	-13385
▁మీ	-13386
▁BAR	-13387
▁पूज	-13388
▁Gold	-13389
▁प्लस	-13390
▁desired	-13391
▁उत्पादक	-13392
▁संलग्नक	-13393
▁apparent	-13394
▁database	-13395
▁universe	-13396
irs	-13397
▁Ra	-13398
terday	-13399
▁भांति	-13400
▁detail	-13401
▁सेक्टर	-13402
▁evident	-13403
▁traditions	-13404
OV	-13405
ण्ट	-13406
▁1'	-13407
स्सा	-13408
▁Deb	-13409
▁फुट	-13410
▁लिप	-13411
ालयों	-13412
▁eggs	-13413
▁आंकड़ा	-13414
▁शेयरों	-13415
▁persist	-13416
▁इकाइयों	-13417
▁regarded	-13418
▁आतंकवादी	-13419
▁पथभ्रष्ट	-13420
▁Assessing	-13421
▁comprehensive	-13422
ums	-13423
▁वय	-13424
list	-13425
▁हां	-13426
Moses	-13427
entle	-13428
▁किले	-13429
▁कृति	-13430
▁roads	-13431
inating	-13432
▁appell	-13433
▁derived	-13434
▁पारस्परिक	-13435
▁translated	-13436
▁arrangement	-13437
DR	-13438
iri	-13439
riya	-13440
लामी	-13441
▁Get	-13442
त्रिम	-13443
▁audit	-13444
▁arising	-13445
▁रचनात्मक	-13446
▁वैकल्पिक	-13447
▁collected	-13448
▁rot	-13449
▁उपज	-13450
▁2018	-13451
▁fram	-13452
▁surg	-13453
▁ईंधन	-13454
▁grain	-13455
▁बेटों	-13456
▁Comput	-13457
▁conceal	-13458
▁exactly	-13459
▁estimated	-13460
On	-13461
एमई	-13462
साई	-13463
उसकी	-13464
▁Oft	-13465
▁Run	-13466
▁Upd	-13467
▁जैन	-13468
▁बर्फ	-13469
▁सिरे	-13470
▁होगे	-13471
▁afflict	-13472
▁willing	-13473
▁अधिकारिता	-13474
आत	-13475
▁ties	-13476
▁शासक	-13477
▁हुये	-13478
ब्ल्यू	-13479
▁Being	-13480
▁Innov	-13481
▁Liter	-13482
▁करेंः	-13483
▁forests	-13484
▁प्रतिबि	-13485
▁improving	-13486
समा	-13487
▁तृ	-13488
बहुत	-13489
▁Ele	-13490
▁fet	-13491
▁vacc	-13492
▁पाना	-13493
▁बचने	-13494
▁मारा	-13495
▁शास्त्र	-13496
▁नज	-13497
ulty	-13498
▁tot	-13499
▁ख़ा	-13500
▁घेर	-13501
ख्वाह	-13502
▁ease	-13503
▁pert	-13504
▁Friends	-13505
▁judicial	-13506
▁क्रांतिक	-13507
▁suggested	-13508
▁achievement	-13509
▁(0	-13510
▁Priv	-13511
▁Email	-13512
▁अर्जन	-13513
▁रामायण	-13514
▁Germany	-13515
▁Himself	-13516
how	-13517
▁symp	-13518
▁crores	-13519
▁अपनाने	-13520
▁acquisition	-13521
eer	-13522
▁6,	-13523
जनों	-13524
▁आएँ	-13525
▁वेद	-13526
▁multipl	-13527
▁दिसम्बर	-13528
▁meetings	-13529
▁telephone	-13530
हरों	-13531
▁11.	-13532
▁POP	-13533
▁pit	-13534
▁सकल	-13535
▁जीवों	-13536
▁फसलों	-13537
▁हटाने	-13538
ificial	-13539
▁हिमाचल	-13540
▁observe	-13541
पद	-13542
ota	-13543
्रेता	-13544
▁Card	-13545
▁पनाह	-13546
▁Buddhist	-13547
▁guidelines	-13548
▁देशवासियों	-13549
▁पूर्ववर्ती	-13550
▁consumption	-13551
▁Ja	-13552
garh	-13553
▁समू	-13554
▁phen	-13555
▁वैदिक	-13556
▁होगें	-13557
▁साधनों	-13558
▁identify	-13559
▁उपलब्धता	-13560
▁'.	-13561
▁ho	-13562
▁अरु	-13563
▁झील	-13564
▁सूच	-13565
▁exch	-13566
▁आएगी	-13567
▁outer	-13568
क्तियों	-13569
▁Academ	-13570
▁दक्षता	-13571
▁प्रयोक्ता	-13572
ECT	-13573
iel	-13574
ius	-13575
क्ल	-13576
हक़	-13577
▁fib	-13578
▁eval	-13579
▁भक्त	-13580
▁crime	-13581
▁linked	-13582
▁फोल्डर	-13583
▁सम्राट	-13584
▁servant	-13585
▁कार्यरत	-13586
▁योजनाएं	-13587
▁worshipped	-13588
▁Palestinian	-13589
▁७	-13590
भाषण	-13591
हंसी	-13592
▁Due	-13593
▁भूख	-13594
house	-13595
▁pret	-13596
▁spite	-13597
▁Anjuta	-13598
▁गारंटी	-13599
▁पहलुओं	-13600
▁हथियार	-13601
▁प्रोटोकॉल	-13602
▁खर	-13603
▁पडे	-13604
साइटी	-13605
▁Land	-13606
▁अखिल	-13607
▁पृथक	-13608
तन्त्र	-13609
▁नमूना	-13610
▁दिखायें	-13611
▁ज्यादातर	-13612
▁discussed	-13613
▁recognized	-13614
ట్	-13615
गीय	-13616
प्ल	-13617
मरा	-13618
▁dan	-13619
▁इंस	-13620
▁टीका	-13621
otes	-13622
्यूम	-13623
▁edge	-13624
▁Amend	-13625
▁agent	-13626
▁naught	-13627
▁housing	-13628
▁numerous	-13629
▁विज्ञप्ति	-13630
गुण	-13631
ayer	-13632
mits	-13633
ुमान	-13634
▁Ask	-13635
▁fly	-13636
▁आशय	-13637
▁रहम	-13638
▁शल्य	-13639
▁हलाक	-13640
▁hills	-13641
▁judges	-13642
▁preferred	-13643
▁inspiration	-13644
HT	-13645
▁zone	-13646
▁aband	-13647
▁older	-13648
▁negoti	-13649
▁entrust	-13650
दनी	-13651
▁AN	-13652
iche	-13653
भूषण	-13654
ected	-13655
orship	-13656
▁toler	-13657
▁भरपूर	-13658
▁अधिसूचित	-13659
▁तद	-13660
▁Bet	-13661
▁Lot	-13662
▁बहन	-13663
▁Test	-13664
▁shel	-13665
▁मोड़	-13666
▁clust	-13667
▁defin	-13668
▁maybe	-13669
▁गिनती	-13670
▁allows	-13671
▁तथ्यों	-13672
▁सत्यापित	-13673
life	-13674
▁प्रॉ	-13675
▁expansion	-13676
▁integrated	-13677
▁CA	-13678
▁yellow	-13679
▁दार्शन	-13680
▁enjoyment	-13681
▁परिवर्तनों	-13682
¥	-13683
ज़न	-13684
बाही	-13685
▁ISO	-13686
▁लंदन	-13687
विश्वास	-13688
▁Window	-13689
▁advised	-13690
▁प्रमाणित	-13691
▁reasonable	-13692
tr	-13693
वत्	-13694
वही	-13695
rahim	-13696
ड़ीसा	-13697
▁ब्रे	-13698
▁वन्य	-13699
ciences	-13700
▁Credit	-13701
▁vessel	-13702
▁परेशान	-13703
▁भावनाओं	-13704
▁improved	-13705
▁लक्ष्यों	-13706
▁अंग्रेजों	-13707
▁investments	-13708
▁51	-13709
opal	-13710
नीतिक	-13711
▁Spec	-13712
▁गंतव्य	-13713
▁देखोगे	-13714
▁empower	-13715
▁criminal	-13716
▁repentance	-13717
▁1991	-13718
▁Laksh	-13719
▁मजबूर	-13720
▁Execut	-13721
▁injust	-13722
▁observ	-13723
▁spoken	-13724
▁नकारात्मक	-13725
45	-13726
▁मण	-13727
▁Rev	-13728
▁आवि	-13729
▁लेबल	-13730
▁goals	-13731
▁सम्पन्न	-13732
▁कचरा	-13733
icipal	-13734
▁encry	-13735
▁इरादा	-13736
▁एहसान	-13737
▁चुकता	-13738
▁stages	-13739
arh	-13740
ंसक	-13741
▁raw	-13742
▁acid	-13743
▁गद्य	-13744
▁सूरज	-13745
▁filed	-13746
▁Annual	-13747
▁Houses	-13748
▁साक्षी	-13749
▁सोसाइटी	-13750
▁proclaim	-13751
▁highlight	-13752
▁कार्यालयों	-13753
nan	-13754
▁गढ़	-13755
▁Jain	-13756
▁हकदार	-13757
▁considerable	-13758
थित	-13759
atics	-13760
बरदार	-13761
▁Gree	-13762
▁park	-13763
▁scen	-13764
▁समूद	-13765
▁allot	-13766
▁mirac	-13767
▁कट्टर	-13768
▁masses	-13769
▁बहादुर	-13770
▁बिन्दु	-13771
▁खिलाड़ी	-13772
▁स्कूलों	-13773
▁imperial	-13774
▁recognize	-13775
▁Size	-13776
▁झूठा	-13777
▁संधि	-13778
inance	-13779
▁मतभेद	-13780
▁Profess	-13781
utt	-13782
▁Dig	-13783
▁कमाई	-13784
pelled	-13785
▁armed	-13786
▁remarkable	-13787
▁प्रावधानों	-13788
लीन	-13789
▁du	-13790
▁Left	-13791
▁cart	-13792
▁तेरा	-13793
▁Pandit	-13794
▁cancer	-13795
▁permitted	-13796
jan	-13797
ircu	-13798
▁जाग	-13799
▁buff	-13800
▁टिकट	-13801
▁पीछा	-13802
▁रहित	-13803
▁stopped	-13804
▁trained	-13805
▁demonstr	-13806
▁Similarly	-13807
-9	-13808
75	-13809
ాల	-13810
परा	-13811
उनके	-13812
▁Jay	-13813
▁Pad	-13814
ंक्शन	-13815
वास्त	-13816
▁Road	-13817
▁मुल्क	-13818
▁लम्बी	-13819
▁Commer	-13820
▁farmer	-13821
▁signature	-13822
▁regulations	-13823
SA	-13824
ITY	-13825
▁55	-13826
क्तिक	-13827
▁1980	-13828
▁श्रो	-13829
▁sites	-13830
▁ट्यूब	-13831
▁राज़ी	-13832
▁व्यष्टि	-13833
▁राष्ट्रों	-13834
िद	-13835
▁बचे	-13836
▁१९९	-13837
ether	-13838
▁meat	-13839
▁पेट्रोल	-13840
ुद्ध	-13841
▁Bra	-13842
▁Dal	-13843
▁Dar	-13844
▁पेय	-13845
▁भुला	-13846
ounter	-13847
▁curse	-13848
ributes	-13849
▁acting	-13850
▁फरमाया	-13851
▁Kingdom	-13852
▁Whatever	-13853
चाह	-13854
----	-13855
izer	-13856
▁via	-13857
▁Tham	-13858
▁ऊंचा	-13859
▁कारा	-13860
encing	-13861
▁pious	-13862
▁describ	-13863
▁harmony	-13864
▁mailing	-13865
▁कृत्रिम	-13866
▁साझेदारी	-13867
▁घात	-13868
▁दूँ	-13869
rease	-13870
▁बालों	-13871
welling	-13872
▁aggreg	-13873
▁स्थितियों	-13874
▁attachment	-13875
?'	-13876
जत	-13877
▁८	-13878
.05	-13879
och	-13880
rum	-13881
िरण	-13882
▁पश	-13883
wers	-13884
▁पचास	-13885
▁mixed	-13886
▁ratio	-13887
▁decree	-13888
▁stored	-13889
▁reprodu	-13890
▁interface	-13891
▁felicitations	-13892
ंबे	-13893
आउट	-13894
र्ता	-13895
▁घास	-13896
▁तुझ	-13897
▁बेर	-13898
▁Chait	-13899
▁श्वेत	-13900
ानुभूति	-13901
▁offence	-13902
▁स्रोतों	-13903
▁deposits	-13904
▁happening	-13905
▁sav	-13906
orous	-13907
▁Asian	-13908
▁सन्देह	-13909
▁विचारधारा	-13910
▁completion	-13911
▁constructed	-13912
DP	-13913
aren	-13914
िकीय	-13915
▁अवल	-13916
▁stamp	-13917
▁प्रबल	-13918
▁मिलना	-13919
▁लाभों	-13920
▁क़समें	-13921
▁दोज़ख़	-13922
▁amalgam	-13923
▁Accounts	-13924
▁Committees	-13925
▁excellence	-13926
▁competition	-13927
ua	-13928
▁Phot	-13929
▁चोरी	-13930
jection	-13931
▁Energy	-13932
▁propag	-13933
▁degrees	-13934
▁demands	-13935
▁worldly	-13936
▁आस्तियों	-13937
▁व्यापारिक	-13938
YS	-13939
bre	-13940
बीन	-13941
लाइ	-13942
▁पन	-13943
▁बट	-13944
▁Tor	-13945
ureau	-13946
▁None	-13947
▁शंकर	-13948
▁पूछते	-13949
निर्माण	-13950
▁ठहराया	-13951
▁violent	-13952
▁अनुक्रम	-13953
▁कानूनों	-13954
▁सौभाग्य	-13955
▁commence	-13956
▁आकांक्षा	-13957
एव	-13958
anga	-13959
umes	-13960
▁कीटों	-13961
▁कोर्ट	-13962
▁पढ़ते	-13963
▁अधिकृत	-13964
▁आंकड़े	-13965
▁guardian	-13966
▁continuous	-13967
▁दस्तावेजों	-13968
)]	-13969
कंप	-13970
▁tag	-13971
संचार	-13972
▁जरुर	-13973
▁marks	-13974
▁Master	-13975
▁Temple	-13976
▁Tourism	-13977
▁discharge	-13978
▁conservation	-13979
दूत	-13980
organ	-13981
▁bact	-13982
▁elim	-13983
▁उभार	-13984
▁Follow	-13985
▁encomp	-13986
▁warned	-13987
▁भाइयों	-13988
▁disobey	-13989
▁पाकीज़ा	-13990
▁शिक्षित	-13991
▁सलाहकार	-13992
▁प्रतिदान	-13993
▁steadfast	-13994
▁प्रतिबद्धता	-13995
39	-13996
मस	-13997
asty	-13998
▁ढेर	-13999
▁Saty	-14000
▁राज़	-14001
▁पड़ते	-14002
▁रोकते	-14003
▁touched	-14004
▁टर्मिनल	-14005
▁incurred	-14006
क़े	-14007
टिक	-14008
बाई	-14009
भोग	-14010
ashi	-14011
पुरुष	-14012
▁thor	-14013
▁होटल	-14014
▁Gupta	-14015
▁adorn	-14016
▁Police	-14017
▁struck	-14018
▁liberal	-14019
▁respite	-14020
▁मुहम्मद	-14021
asw	-14022
▁Sem	-14023
erior	-14024
सूत्र	-14025
स्फोट	-14026
▁1997	-14027
▁falls	-14028
▁पुरूष	-14029
▁Integr	-14030
▁स्तरीय	-14031
▁quantity	-14032
ईं	-14033
ador	-14034
▁आदर	-14035
▁उलट	-14036
.2017	-14037
icent	-14038
▁Four	-14039
▁helper	-14040
▁सारांश	-14041
▁productivity	-14042
▁भव	-14043
pens	-14044
पसंद	-14045
▁डिप	-14046
etary	-14047
▁पाये	-14048
▁Level	-14049
▁समापन	-14050
▁इंग्लैंड	-14051
▁कृतज्ञता	-14052
▁केंद्रों	-14053
▁van	-14054
iciary	-14055
▁stuff	-14056
▁पेशेवर	-14057
▁प्रसारण	-14058
▁remembrance	-14059
,–	-14060
ेरा	-14061
▁8,	-14062
▁Ce	-14063
otal	-14064
▁Fed	-14065
▁नक्	-14066
atell	-14067
▁boys	-14068
▁idols	-14069
▁innoc	-14070
▁अंशदान	-14071
▁डीवीडी	-14072
▁स्वाधीन	-14073
▁diversity	-14074
▁irrigation	-14075
▁organisations	-14076
▁representative	-14077
▁(10	-14078
▁Equ	-14079
▁वाम	-14080
▁Appe	-14081
▁sympt	-14082
▁rulers	-14083
▁prepare	-14084
▁प्रवासी	-14085
ographical	-14086
¥	-14087
इंड	-14088
▁ran	-14089
▁rou	-14090
▁ईंट	-14091
▁पेर	-14092
ounds	-14093
तायात	-14094
▁आयकर	-14095
▁noble	-14096
▁solve	-14097
▁invent	-14098
▁Cabinet	-14099
▁devices	-14100
▁pointed	-14101
▁सैनिकों	-14102
▁Calendar	-14103
▁disabled	-14104
▁emphasis	-14105
▁programs	-14106
▁ब्राह्मण	-14107
▁electronic	-14108
enn	-14109
▁फो	-14110
वाणी	-14111
▁Lad	-14112
▁नकद	-14113
▁आईडी	-14114
▁minute	-14115
▁involve	-14116
▁paramet	-14117
▁windows	-14118
▁शीर्षिका	-14119
▁faithless	-14120
▁injustice	-14121
▁कार्यान्वित	-14122
▁satisfaction	-14123
▁उत्तरदायित्व	-14124
off	-14125
ranch	-14126
वृद्धि	-14127
▁Ambed	-14128
▁गाड़ी	-14129
▁valley	-14130
▁fulfill	-14131
▁herself	-14132
ैली	-14133
पर्य	-14134
▁kid	-14135
▁जता	-14136
जहन्न	-14137
स्टिक	-14138
▁impr	-14139
▁nurs	-14140
▁pair	-14141
▁ख़ौफ	-14142
▁नर्म	-14143
कारिता	-14144
▁Online	-14145
▁spring	-14146
▁खतरनाक	-14147
▁रिश्ते	-14148
▁mechanism	-14149
CS	-14150
anath	-14151
▁परोक्ष	-14152
▁Ambedkar	-14153
▁Jawaharlal	-14154
¤	-14155
भास	-14156
itya	-14157
part	-14158
▁upl	-14159
▁बलि	-14160
icted	-14161
▁dawn	-14162
▁स्तन	-14163
▁glass	-14164
▁निचले	-14165
▁Capital	-14166
▁Subject	-14167
▁eastern	-14168
▁Australia	-14169
▁corporate	-14170
▁encompass	-14171
▁voluntary	-14172
▁appearance	-14173
राय	-14174
लेखा	-14175
▁सोल	-14176
▁jail	-14177
▁नौकर	-14178
▁Democ	-14179
▁अपनाई	-14180
श्रेष्ठ	-14181
▁कुशलता	-14182
▁ज्योति	-14183
▁ख्वाहिश	-14184
▁फ़ाइलों	-14185
▁हिस्सों	-14186
▁अध्यक्षता	-14187
21	-14188
▁dro	-14189
▁जुल	-14190
▁बडा	-14191
▁बहि	-14192
▁अजीब	-14193
▁अपार	-14194
▁चलना	-14195
▁सौंद	-14196
orders	-14197
▁चेन्न	-14198
▁पड़ने	-14199
▁आकर्षण	-14200
▁वस्तुएं	-14201
▁ensuring	-14202
निया	-14203
ल्ले	-14204
▁घाट	-14205
▁गीता	-14206
तालियाँ	-14207
▁silver	-14208
▁दिखाना	-14209
▁मानकों	-14210
▁साक्षा	-14211
▁Connect	-14212
▁complaint	-14213
▁whomsoever	-14214
▁departments	-14215
▁transmission	-14216
▁मचा	-14217
▁शादी	-14218
जीविका	-14219
▁algor	-14220
▁finds	-14221
▁पिछला	-14222
PRODUCT	-14223
▁saving	-14224
▁मंत्रि	-14225
▁यातायात	-14226
▁duration	-14227
▁relatives	-14228
▁participate	-14229
ेंच	-14230
▁(*	-14231
▁1)	-14232
▁38	-14233
ब्बा	-14234
▁Way	-14235
▁sed	-14236
▁रेड	-14237
▁भव्य	-14238
▁भाष्	-14239
▁camel	-14240
▁corner	-14241
▁convert	-14242
डू	-14243
▁९	-14244
चाप	-14245
aked	-14246
▁Sab	-14247
▁abst	-14248
▁इमारत	-14249
▁किराये	-14250
▁planned	-14251
▁वनस्पति	-14252
▁चिकित्सक	-14253
▁categories	-14254
obe	-14255
▁मेघ	-14256
iques	-14257
ानिर्	-14258
▁गलती	-14259
▁Manager	-14260
▁internet	-14261
▁Knowledge	-14262
▁directions	-14263
▁प्रणालियों	-14264
▁difficulties	-14265
odal	-14266
▁वसी	-14267
▁हरा	-14268
▁doom	-14269
▁hast	-14270
▁वांछ	-14271
▁तीसरी	-14272
▁दुर्लभ	-14273
▁notified	-14274
▁डु	-14275
▁Super	-14276
▁मतदान	-14277
▁tender	-14278
ellation	-14279
▁Himachal	-14280
▁Companies	-14281
ारक	-14282
▁ढल	-14283
▁Amb	-14284
▁Tog	-14285
▁अद्	-14286
▁Circ	-14287
▁पूछे	-14288
▁सीता	-14289
▁हँसी	-14290
ाधिकार	-14291
▁GNOME	-14292
▁cried	-14293
▁metal	-14294
▁worst	-14295
▁अस्थि	-14296
▁पीड़ा	-14297
▁strange	-14298
▁affection	-14299
▁""	-14300
मोहन	-14301
bered	-14302
▁TRAN	-14303
व्यापी	-14304
▁Guard	-14305
▁quiet	-14306
▁बाक़ी	-14307
▁लम्बे	-14308
izontal	-14309
▁अकादमी	-14310
resident	-14311
▁disappe	-14312
▁भागीदार	-14313
▁मुकाबले	-14314
▁superior	-14315
▁स्वच्छता	-14316
▁personnel	-14317
తు	-14318
▁cos	-14319
▁vit	-14320
संख्य	-14321
▁खनिज	-14322
▁बादल	-14323
▁Ahmed	-14324
▁उड़ीसा	-14325
▁वृत्ति	-14326
▁sharing	-14327
▁जरूरतों	-14328
▁संक्रिया	-14329
▁securities	-14330
अन	-14331
yas	-14332
▁Jh	-14333
▁Od	-14334
▁बिन	-14335
▁1993	-14336
▁Source	-14337
▁आख़ेरत	-14338
▁Bharati	-14339
▁finding	-14340
▁पहुँचने	-14341
▁External	-14342
▁pictures	-14343
▁अपेक्षाकृत	-14344
बस	-14345
सद	-14346
”;	-14347
किस	-14348
▁घन	-14349
▁दम	-14350
आईटी	-14351
▁खाल	-14352
imony	-14353
inces	-14354
uddin	-14355
▁Farm	-14356
vation	-14357
▁enact	-14358
▁जिलों	-14359
▁तबाही	-14360
▁पार्ट	-14361
▁महानि	-14362
▁bridge	-14363
▁Ibrahim	-14364
▁असामान्य	-14365
▁प्राधिकृत	-14366
▁discussions	-14367
▁effectively	-14368
▁interpretation	-14369
IB	-14370
वो	-14371
षी	-14372
हद	-14373
ima	-14374
▁बम	-14375
▁नाह	-14376
icket	-14377
▁grat	-14378
▁कंपन	-14379
▁यहूद	-14380
▁हाउस	-14381
▁Banks	-14382
▁White	-14383
▁scene	-14384
▁virtue	-14385
▁इजाज़त	-14386
▁सुधारों	-14387
▁लाइब्रेरी	-14388
▁determination	-14389
kh	-14390
पय	-14391
कने	-14392
icity	-14393
संबंध	-14394
▁आवरण	-14395
▁usual	-14396
▁मरियम	-14397
▁मनपसंद	-14398
▁लोकसभा	-14399
▁equival	-14400
▁founded	-14401
▁addresses	-14402
▁requested	-14403
▁Agricultural	-14404
भाई	-14405
down	-14406
▁गले	-14407
▁दिश	-14408
स्तीन	-14409
▁fasc	-14410
▁subt	-14411
▁भड़क	-14412
▁Peace	-14413
▁verse	-14414
▁लगाकर	-14415
▁छुट्टी	-14416
▁Panchay	-14417
▁अभिभाषण	-14418
▁पूर्णतः	-14419
▁महासागर	-14420
▁Amendment	-14421
▁practical	-14422
▁anniversary	-14423
urse	-14424
ऊँगा	-14425
▁मला	-14426
▁Russia	-14427
▁domain	-14428
▁occurs	-14429
▁chapter	-14430
▁drawing	-14431
▁theatre	-14432
▁executive	-14433
▁प्रतिवादी	-14434
mail	-14435
▁(6)	-14436
▁खेत	-14437
शुल्क	-14438
▁advoc	-14439
▁आस्था	-14440
▁widely	-14441
▁पहुँची	-14442
▁suffered	-14443
▁enterprise	-14444
▁प्रशिक्षित	-14445
yn	-14446
’.	-14447
▁rhy	-14448
▁myth	-14449
▁घटित	-14450
▁चाहो	-14451
▁illeg	-14452
▁निकाह	-14453
▁ड्राइव	-14454
▁नज़दीक	-14455
▁telling	-14456
▁देवताओं	-14457
▁employer	-14458
▁familiar	-14459
▁increases	-14460
▁infection	-14461
key	-14462
ria	-14463
ध्व	-14464
bles	-14465
खाना	-14466
ॉक्स	-14467
▁अंडे	-14468
▁पुनरा	-14469
▁humans	-14470
▁प्राणी	-14471
▁biggest	-14472
▁writings	-14473
▁देनेवाला	-14474
▁vegetables	-14475
▁7,	-14476
usal	-14477
▁तस्	-14478
▁News	-14479
▁बचपन	-14480
सायनिक	-14481
▁aught	-14482
▁divers	-14483
▁स्मारक	-14484
▁courses	-14485
▁gradually	-14486
▁व्याख्यान	-14487
▁strengthening	-14488
lin	-14489
▁नम	-14490
They	-14491
पीसी	-14492
म्पा	-14493
▁Dom	-14494
tical	-14495
▁axis	-14496
▁इष्ट	-14497
▁क़रार	-14498
▁convin	-14499
▁player	-14500
▁ऑफ़लाइन	-14501
▁accommod	-14502
▁कहानियों	-14503
.“	-14504
▁La	-14505
aron	-14506
च्ची	-14507
▁Kam	-14508
▁anx	-14509
▁जगत	-14510
▁हड़	-14511
▁अगरचे	-14512
▁उत्सव	-14513
▁Perhaps	-14514
▁printed	-14515
▁टेलीफोन	-14516
▁विकासशील	-14517
▁संकल्पना	-14518
¤	-14519
णे	-14520
हवीं	-14521
▁कंध	-14522
▁कुट	-14523
▁मेमो	-14524
▁Chenn	-14525
▁accum	-14526
▁दिखाए	-14527
▁संचित	-14528
▁Territ	-14529
▁ordered	-14530
▁चाहूंगा	-14531
▁परिश्रम	-14532
▁elephant	-14533
aze	-14534
हान	-14535
काना	-14536
्राव	-14537
▁अटल	-14538
▁असी	-14539
▁बिग	-14540
their	-14541
▁आवेद	-14542
▁क्यो	-14543
▁बेटी	-14544
▁Vedic	-14545
▁परवाह	-14546
▁papers	-14547
▁despite	-14548
▁एजेंसियों	-14549
▁structures	-14550
तिल	-14551
मुना	-14552
▁Ang	-14553
▁Fac	-14554
▁तदन	-14555
▁Cell	-14556
▁upto	-14557
▁आईटी	-14558
▁डरता	-14559
▁haply	-14560
▁मेहनत	-14561
▁Filter	-14562
▁approx	-14563
▁dreams	-14564
▁मरम्मत	-14565
▁मानदंड	-14566
▁मुकदमा	-14567
▁वितरित	-14568
▁accurate	-14569
▁करनेवाली	-14570
▁liability	-14571
▁CS	-14572
ामिन	-14573
▁एहद	-14574
▁मील	-14575
chron	-14576
त्मकता	-14577
▁फ्रेम	-14578
▁Spirit	-14579
▁equals	-14580
▁claimed	-14581
▁बेहिश्त	-14582
▁determine	-14583
GP	-14584
ef	-14585
law	-14586
▁टि	-14587
▁Job	-14588
▁नाक	-14589
▁vide	-14590
▁गूगल	-14591
ashion	-14592
▁owned	-14593
▁आँखें	-14594
▁बहुमत	-14595
▁Screen	-14596
▁नारायण	-14597
▁breasts	-14598
▁पूर्णता	-14599
▁arrangements	-14600
▁Vers	-14601
▁समेक	-14602
▁हिला	-14603
▁ended	-14604
cession	-14605
▁ज़िक्र	-14606
▁resolve	-14607
▁संतुष्ट	-14608
▁प्रवर्तन	-14609
▁righteousness	-14610
लाप	-14611
▁39	-14612
अपना	-14613
▁घुस	-14614
▁IMAP	-14615
▁acce	-14616
▁sake	-14617
▁silk	-14618
▁vain	-14619
urated	-14620
▁gradu	-14621
▁मानने	-14622
▁palace	-14623
inations	-14624
▁devoted	-14625
▁phenomen	-14626
▁receiving	-14627
3)	-14628
ठीक	-14629
ान्	-14630
िट्	-14631
uted	-14632
डीएफ	-14633
▁हैस	-14634
▁offs	-14635
▁पैनल	-14636
▁Prasad	-14637
▁condem	-14638
▁अन्याय	-14639
▁इंदिरा	-14640
▁achievements	-14641
asp	-14642
नेस	-14643
▁bh	-14644
त्रि	-14645
▁रिट	-14646
▁draft	-14647
▁yours	-14648
▁इन्हीं	-14649
▁greatly	-14650
▁helping	-14651
▁removal	-14652
▁दीक्षांत	-14653
▁prominent	-14654
15	-14655
DF	-14656
समझ	-14657
▁फट	-14658
प्रा	-14659
▁नाय	-14660
▁क्रय	-14661
▁socio	-14662
▁वृत्त	-14663
▁शाखाओं	-14664
▁creates	-14665
▁मोहम्मद	-14666
▁रन	-14667
▁छोड	-14668
▁सना	-14669
▁delic	-14670
▁panel	-14671
▁visual	-14672
▁अनुचित	-14673
▁eternal	-14674
▁उद्यमों	-14675
▁संदेशों	-14676
▁southern	-14677
▁आत्मनिर्भर	-14678
Al	-14679
शक	-14680
olic	-14681
▁coc	-14682
द्रास	-14683
पोरेट	-14684
▁tear	-14685
▁नामा	-14686
▁पाठक	-14687
▁लगने	-14688
▁वैसी	-14689
......	-14690
aching	-14691
ulatory	-14692
▁पंजाबी	-14693
▁missing	-14694
▁Ramayana	-14695
▁distress	-14696
▁sentence	-14697
▁परंपरागत	-14698
▁विज्ञापन	-14699
ंकी	-14700
किम	-14701
ृंग	-14702
▁*.	-14703
▁Wid	-14704
▁वजन	-14705
▁pard	-14706
▁सुनी	-14707
▁विफलः	-14708
▁differ	-14709
▁प्लगिन	-14710
▁समर्पण	-14711
▁विदेशों	-14712
▁acceptance	-14713
थन	-14714
ikh	-14715
▁Ek	-14716
ambo	-14717
▁Cop	-14718
▁कड़	-14719
▁कुम	-14720
शिक्ष	-14721
▁Cond	-14722
▁Guid	-14723
▁Raja	-14724
▁जुटा	-14725
▁worse	-14726
▁गर्भा	-14727
▁सुनाई	-14728
▁संयोजन	-14729
▁assembly	-14730
▁attended	-14731
▁contributed	-14732
▁Parliamentary	-14733
Pe	-14734
da	-14735
':%	-14736
सम्	-14737
▁हज	-14738
ग्रा	-14739
▁धूम	-14740
allel	-14741
हमारी	-14742
▁bell	-14743
▁नौका	-14744
▁बनाओ	-14745
▁Apart	-14746
▁ट्रांस	-14747
▁inhabit	-14748
▁pillars	-14749
▁educated	-14750
▁somebody	-14751
▁सहानुभूति	-14752
▁components	-14753
▁अफगानिस्तान	-14754
24	-14755
▁टक	-14756
▁Vij	-14757
▁nav	-14758
▁आधे	-14759
▁एमएस	-14760
ronics	-14761
▁needy	-14762
▁Madras	-14763
▁beside	-14764
▁profile	-14765
▁investors	-14766
▁उत्पादकता	-14767
▁ఆ	-14768
▁09	-14769
▁१२	-14770
▁Mode	-14771
▁अड्ड	-14772
▁धोखे	-14773
▁ऊँचाई	-14774
▁क्लिप	-14775
reement	-14776
▁claims	-14777
▁निवारण	-14778
▁अस्वीकार	-14779
▁producing	-14780
▁significance	-14781
UG	-14782
ग्स	-14783
्रु	-14784
टकों	-14785
ताअत	-14786
▁ऊतक	-14787
▁ओवर	-14788
▁kids	-14789
▁चौथा	-14790
▁पशुओं	-14791
weather	-14792
त्रियों	-14793
▁Ayurved	-14794
▁आजीविका	-14795
▁recovery	-14796
▁controlled	-14797
खाने	-14798
खुदा	-14799
जाने	-14800
पीआई	-14801
▁Eff	-14802
▁Mor	-14803
▁anc	-14804
▁mak	-14805
▁nom	-14806
▁सहे	-14807
▁संगत	-14808
▁पाओगे	-14809
▁सारणी	-14810
▁decade	-14811
▁pretty	-14812
▁पत्रों	-14813
▁Exalted	-14814
▁awarded	-14815
▁streams	-14816
कै	-14817
acc	-14818
डों	-14819
णता	-14820
र्भ	-14821
सेल	-14822
ప్ప	-14823
ंगें	-14824
▁clar	-14825
▁liars	-14826
▁humble	-14827
▁lesson	-14828
▁wholly	-14829
▁इलाकों	-14830
▁testing	-14831
▁परिस्थिति	-14832
)."	-14833
कोर	-14834
▁Mir	-14835
▁खातों	-14836
▁Action	-14837
▁lessons	-14838
▁weapons	-14839
▁मुख्यतः	-14840
▁साझीदार	-14841
▁उत्कृष्टता	-14842
▁experiences	-14843
za	-14844
rin	-14845
▁47	-14846
bind	-14847
स्सी	-14848
being	-14849
सूचना	-14850
▁बरकत	-14851
▁वैष्ण	-14852
▁धनराशि	-14853
▁संवेदना	-14854
AO	-14855
డి	-14856
ATE	-14857
मंच	-14858
▁NPS	-14859
▁cup	-14860
▁myst	-14861
▁मंगल	-14862
▁श्रेण	-14863
▁covers	-14864
▁आकर्षक	-14865
▁इसलिये	-14866
▁गवर्नर	-14867
▁killing	-14868
ूरो	-14869
▁Far	-14870
chief	-14871
▁flesh	-14872
▁sovere	-14873
▁शर्तें	-14874
▁forwarded	-14875
▁intention	-14876
▁partition	-14877
▁terrorist	-14878
▁अंग्रेज़ी	-14879
▁कार्यकारी	-14880
CD	-14881
arge	-14882
▁beat	-14883
▁नर्स	-14884
▁forty	-14885
ष्टाचार	-14886
▁plaint	-14887
▁passion	-14888
▁उपेक्षा	-14889
▁सौंदर्य	-14890
▁gn	-14891
wing	-14892
ोल्ड	-14893
▁Lah	-14894
▁मरी	-14895
▁mine	-14896
▁बाढ़	-14897
asures	-14898
▁बढ़ता	-14899
▁दिखाते	-14900
▁faculty	-14901
▁समकालीन	-14902
▁ignorance	-14903
▁specially	-14904
▁संवेदनशील	-14905
AIL	-14906
▁ma	-14907
▁lev	-14908
▁गयीं	-14909
▁मंडप	-14910
▁कुबूल	-14911
▁केडीई	-14912
▁ग्रीन	-14913
▁बेकार	-14914
istries	-14915
▁vehicle	-14916
▁subjected	-14917
▁discovered	-14918
१९	-14919
్య	-14920
alo	-14921
pat	-14922
अगर	-14923
खार	-14924
ूमत	-14925
▁कव	-14926
umph	-14927
▁(18	-14928
▁उदय	-14929
▁ओपन	-14930
▁Task	-14931
▁Audio	-14932
▁aggress	-14933
▁recommendations	-14934
fl	-14935
TER	-14936
▁आदत	-14937
श्चित	-14938
▁बगैर	-14939
▁औज़ार	-14940
▁ज़बान	-14941
▁traffic	-14942
▁प्रचालन	-14943
▁infinite	-14944
▁constantly	-14945
Be	-14946
जक	-14947
▁-,	-14948
upon	-14949
उसका	-14950
▁Tir	-14951
▁mun	-14952
▁viz	-14953
arest	-14954
tched	-14955
▁urge	-14956
▁Mercy	-14957
▁usage	-14958
▁कराता	-14959
▁पढ़ाई	-14960
▁Details	-14961
▁अनिवासी	-14962
▁valuable	-14963
▁अवसंरचना	-14964
ँट	-14965
लोक	-14966
शोर	-14967
ण्डल	-14968
▁eve	-14969
▁kne	-14970
▁1986	-14971
▁Koran	-14972
▁Lanka	-14973
▁faced	-14974
▁shrine	-14975
▁package	-14976
▁permiss	-14977
▁monitoring	-14978
ड़ो	-14979
ताप	-14980
बाप	-14981
▁1/	-14982
▁EV	-14983
long	-14984
स्से	-14985
▁Wik	-14986
▁ego	-14987
▁चश्	-14988
योग्य	-14989
र्कों	-14990
▁ring	-14991
▁समाम	-14992
lihood	-14993
▁खोजने	-14994
▁सोचने	-14995
▁मद्रास	-14996
▁painting	-14997
▁classical	-14998
▁accompanied	-14999
▁प्रतिस्पर्धा	-15000
DA	-15001
EF	-15002
जरत	-15003
मैन	-15004
eper	-15005
विदा	-15006
▁धान	-15007
▁kings	-15008
▁सुनकर	-15009
▁tremend	-15010
बेल	-15011
▁CP	-15012
क्षे	-15013
▁रोब	-15014
▁bath	-15015
▁कराई	-15016
▁मोहन	-15017
▁cycle	-15018
▁proxy	-15019
▁डॉक्टर	-15020
▁मुशरिक	-15021
▁alternative	-15022
▁combination	-15023
☻☻	-15024
तेह	-15025
पक्व	-15026
peror	-15027
▁bull	-15028
▁chair	-15029
▁cloth	-15030
▁निक्ष	-15031
▁companions	-15032
▁उपलब्धियों	-15033
▁Universities	-15034
HER	-15035
anth	-15036
▁कोण	-15037
हाबाद	-15038
▁Prop	-15039
▁वाणी	-15040
चन्द्र	-15041
▁सेंटर	-15042
▁Person	-15043
▁पहाड़ों	-15044
▁normally	-15045
▁encouraged	-15046
वेल	-15047
▁MSME	-15048
▁deaf	-15049
▁अतएव	-15050
▁कालेज	-15051
▁खोजें	-15052
▁बनाती	-15053
▁सृजित	-15054
▁unseen	-15055
▁अज्ञान	-15056
▁कवियों	-15057
▁नवाचार	-15058
▁browser	-15059
▁mothers	-15060
▁quarter	-15061
▁सितम्बर	-15062
▁opposite	-15063
▁strategic	-15064
ंर	-15065
▁hi	-15066
विंद	-15067
▁600	-15068
▁Bhut	-15069
▁lege	-15070
▁anger	-15071
▁chrom	-15072
attered	-15073
▁debate	-15074
▁पब्लिक	-15075
▁enforce	-15076
▁मित्रता	-15077
▁वस्तुतः	-15078
▁Download	-15079
▁ceremony	-15080
▁carefully	-15081
फ़त	-15082
ुरु	-15083
बार्ड	-15084
▁Ever	-15085
▁ungr	-15086
▁बढ़ो	-15087
▁cotton	-15088
▁व्युत्पन्न	-15089
कक्ष	-15090
ूल्य	-15091
▁pix	-15092
▁wat	-15093
▁एन्	-15094
▁लीग	-15095
▁1995	-15096
▁node	-15097
▁fluid	-15098
▁पूछता	-15099
▁प्रदत्त	-15100
▁प्रोटीन	-15101
▁Location	-15102
▁feelings	-15103
▁hundreds	-15104
▁दार्शनिक	-15105
▁essentially	-15106
gage	-15107
टिंग	-15108
There	-15109
▁Does	-15110
ailable	-15111
▁engage	-15112
▁व्यर्थ	-15113
▁आयुर्वेद	-15114
▁ఒ	-15115
lor	-15116
ेयर	-15117
▁घृ	-15118
When	-15119
▁मरने	-15120
्टवेयर	-15121
▁होस्ट	-15122
▁Rights	-15123
▁रखरखाव	-15124
▁Meeting	-15125
▁deities	-15126
▁publish	-15127
▁दीवारों	-15128
ictionary	-15129
▁Chaitanya	-15130
▁admonition	-15131
▁experiment	-15132
घन	-15133
ताकि	-15134
र्मी	-15135
▁Tal	-15136
▁pron	-15137
▁माउस	-15138
▁Binoy	-15139
▁Major	-15140
▁cards	-15141
▁France	-15142
▁closer	-15143
▁diplom	-15144
▁slaves	-15145
▁indirect	-15146
nic	-15147
ंचल	-15148
cles	-15149
ड़कर	-15150
▁करू	-15151
▁ताज	-15152
▁पते	-15153
▁फूट	-15154
ATORS	-15155
acing	-15156
▁laugh	-15157
▁माननीय	-15158
▁प्रिंटर	-15159
▁मध्यस्थ	-15160
▁arranged	-15161
▁इंजीनियरी	-15162
हीत	-15163
▁वें	-15164
▁नकदी	-15165
▁बांट	-15166
▁Short	-15167
▁निरूप	-15168
▁Center	-15169
▁कर्मों	-15170
▁prophet	-15171
▁परिपक्व	-15172
▁substantial	-15173
▁सर्वश्रेष्ठ	-15174
▁collaboration	-15175
CP	-15176
▁)	-15177
Pro	-15178
▁od	-15179
▁सीन	-15180
endra	-15181
▁Orig	-15182
▁bomb	-15183
▁उत्‍	-15184
▁रहीं	-15185
▁स्वै	-15186
▁Again	-15187
▁guess	-15188
▁loves	-15189
▁डोमेन	-15190
▁discrim	-15191
▁falling	-15192
▁musical	-15193
▁northern	-15194
▁innovative	-15195
▁बांग्लादेश	-15196
पश्च	-15197
श्ती	-15198
▁नरम	-15199
दृष्टि	-15200
▁bears	-15201
▁shame	-15202
▁कोयला	-15203
▁क्रोध	-15204
▁League	-15205
▁danger	-15206
▁Japanese	-15207
▁Certainly	-15208
pad	-15209
oram	-15210
क़ात	-15211
िकरण	-15212
▁फूँ	-15213
▁शब्	-15214
▁salt	-15215
स्तीनी	-15216
▁Hence	-15217
▁seeks	-15218
▁shell	-15219
परीक्षा	-15220
▁TRANSL	-15221
▁forced	-15222
▁इस्पात	-15223
▁निपटने	-15224
▁शान्ति	-15225
▁शुरूआत	-15226
▁emerging	-15227
▁reaching	-15228
▁consequences	-15229
रेत	-15230
शास	-15231
प्रण	-15232
▁वेश	-15233
न्नों	-15234
▁snow	-15235
▁अखबार	-15236
▁संजाल	-15237
▁permit	-15238
▁त्वरित	-15239
▁Medical	-15240
▁Executive	-15241
▁इंजीनियरिंग	-15242
▁entrepreneur	-15243
रन	-15244
API	-15245
ham	-15246
गृह	-15247
▁42	-15248
▁Ro	-15249
▁गोरा	-15250
▁घाटा	-15251
▁दांत	-15252
▁हमपर	-15253
▁wrath	-15254
▁बताना	-15255
▁eating	-15256
▁retrie	-15257
▁इन्द्र	-15258
▁निपटान	-15259
▁रचनाओं	-15260
▁हैसियत	-15261
▁प्रॉक्सी	-15262
▁reckoning	-15263
▁testimony	-15264
▁परिकल्पना	-15265
▁presentation	-15266
▁Sin	-15267
▁rom	-15268
▁वैय	-15269
angle	-15270
▁Burn	-15271
▁exem	-15272
▁दलों	-15273
▁मुहा	-15274
▁निमित	-15275
▁समामेल	-15276
▁Install	-15277
▁patients	-15278
▁Sometimes	-15279
▁discipline	-15280
asy	-15281
वीर	-15282
▁03	-15283
leum	-15284
▁प्य	-15285
▁मत्	-15286
▁माध	-15287
▁(195	-15288
▁आन्द	-15289
▁दौरा	-15290
▁मणिप	-15291
▁सकने	-15292
▁realise	-15293
▁ignorant	-15294
▁distinction	-15295
ईमान	-15296
▁Cle	-15297
▁मग़	-15298
▁प्या	-15299
भूतियों	-15300
▁client	-15301
▁closely	-15302
▁studied	-15303
▁dwelling	-15304
▁रासायनिक	-15305
▁स्ट्रिंग	-15306
ष्म	-15307
▁देह	-15308
▁नूर	-15309
ounce	-15310
▁बालक	-15311
ानुसार	-15312
▁motor	-15313
▁बदलना	-15314
▁हममें	-15315
▁जिन्ना	-15316
▁eminent	-15317
▁रूपरेखा	-15318
▁finished	-15319
▁subsequent	-15320
ड्	-15321
ढे	-15322
पीठ	-15323
▁दीं	-15324
amber	-15325
न्हें	-15326
▁tube	-15327
▁निराश	-15328
▁रूपये	-15329
▁सार्थ	-15330
▁Sector	-15331
▁prevail	-15332
▁director	-15333
▁supposed	-15334
▁qualities	-15335
▁resulting	-15336
▁sensitive	-15337
▁transformation	-15338
ताज	-15339
▁(23	-15340
alore	-15341
▁HTTP	-15342
▁Shiv	-15343
▁tank	-15344
akrish	-15345
क्षरता	-15346
▁अपवाद	-15347
▁बोलने	-15348
ository	-15349
▁raising	-15350
▁एकत्रित	-15351
राष्ट्रपति	-15352
▁TRANSLATORS	-15353
itra	-15354
प्रथम	-15355
▁airc	-15356
फ़ारिश	-15357
▁flour	-15358
▁टैगोर	-15359
▁signal	-15360
▁प्रतिलिपि	-15361
▁je	-15362
▁Sund	-15363
▁vary	-15364
▁ऊंची	-15365
▁oaths	-15366
▁patri	-15367
▁अनन्त	-15368
▁insist	-15369
▁sports	-15370
▁विनियमन	-15371
▁शक्तियां	-15372
▁सामान्यतया	-15373
Os	-15374
तिज	-15375
▁इबर	-15376
ज्ज़त	-15377
▁manage	-15378
▁एशियाई	-15379
▁Forward	-15380
▁realized	-15381
TS	-15382
गान	-15383
ायल	-15384
▁Br	-15385
▁Fe	-15386
तिपय	-15387
भांश	-15388
▁NAB	-15389
▁डेल	-15390
▁बेहद	-15391
▁sales	-15392
▁putting	-15393
▁seconds	-15394
operation	-15395
▁constitu	-15396
▁weakness	-15397
▁राजमार्ग	-15398
▁legislation	-15399
ूलन	-15400
▁नल	-15401
▁टेल	-15402
▁बिट	-15403
▁मंग	-15404
▁inev	-15405
▁कथित	-15406
▁सबका	-15407
त्यक्ष	-15408
▁प्रातः	-15409
▁largely	-15410
▁reaction	-15411
▁एक्सचेंज	-15412
▁Selection	-15413
▁रखनेवालों	-15414
▁authorised	-15415
▁represented	-15416
▁representatives	-15417
EX	-15418
रह	-15419
itud	-15420
▁SSL	-15421
▁ह्र	-15422
दर्शक	-15423
worthy	-15424
▁छोड़े	-15425
▁Object	-15426
▁injury	-15427
▁बढ़ाना	-15428
▁रिज़र्व	-15429
▁respondent	-15430
Go	-15431
पटा	-15432
▁चक	-15433
▁फू	-15434
rupt	-15435
आईसी	-15436
▁हाई	-15437
▁बंबई	-15438
▁मन्द	-15439
▁Value	-15440
▁midst	-15441
▁react	-15442
▁इताअत	-15443
▁कुदरत	-15444
idences	-15445
▁finger	-15446
▁reader	-15447
▁टुकड़ा	-15448
▁विस्फोट	-15449
▁दिशानिर्	-15450
▁क्रांतिकारी	-15451
uv	-15452
ocks	-15453
▁धूप	-15454
▁diet	-15455
▁chose	-15456
▁आमदनी	-15457
▁जिसमे	-15458
▁compuls	-15459
▁convent	-15460
▁ब्रह्मा	-15461
▁technological	-15462
wal	-15463
omon	-15464
▁नमक	-15465
▁बेस	-15466
▁मेज	-15467
▁हरी	-15468
▁keys	-15469
▁फौरन	-15470
▁संगणक	-15471
▁listed	-15472
▁Program	-15473
▁competent	-15474
दाह	-15475
▁Da	-15476
wood	-15477
ष्‍ट	-15478
स्कर	-15479
▁Ltd	-15480
▁Sen	-15481
▁pig	-15482
▁Prot	-15483
▁आजाद	-15484
▁Nagar	-15485
▁ending	-15486
▁खरीदने	-15487
▁स्पर्श	-15488
▁submission	-15489
नाइ	-15490
husi	-15491
▁245	-15492
▁GNU	-15493
▁diam	-15494
▁इनको	-15495
▁ग्लो	-15496
▁grief	-15497
▁उत्पा	-15498
▁जंगली	-15499
▁बनायी	-15500
▁संकलन	-15501
▁हरिया	-15502
▁अन्वेष	-15503
▁ज़रूरी	-15504
artments	-15505
▁Working	-15506
▁fashion	-15507
▁कविताओं	-15508
▁audience	-15509
▁commands	-15510
▁terminal	-15511
▁emotional	-15512
-5	-15513
xts	-15514
ौलत	-15515
गोया	-15516
▁Said	-15517
▁synt	-15518
▁बेहत	-15519
▁शर्म	-15520
▁सफाई	-15521
arathi	-15522
▁गर्दन	-15523
▁विधिक	-15524
▁शासित	-15525
connect	-15526
▁knoweth	-15527
▁imprison	-15528
▁entrusted	-15529
▁regularly	-15530
▁preparation	-15531
नत	-15532
ugu	-15533
शिप	-15534
कहीं	-15535
▁फाइ	-15536
▁बोध	-15537
▁मुआ	-15538
▁unaw	-15539
▁आपात	-15540
▁धोखा	-15541
▁advis	-15542
▁slave	-15543
▁पकड़े	-15544
▁संदत्त	-15545
▁managed	-15546
▁कार्मिक	-15547
▁generated	-15548
▁Legislature	-15549
▁cultivation	-15550
rers	-15551
क्के	-15552
▁Taj	-15553
▁ben	-15554
▁ice	-15555
avior	-15556
▁कहती	-15557
▁नायक	-15558
▁नुक़	-15559
▁crowd	-15560
▁वाक्य	-15561
▁NATION	-15562
▁planet	-15563
▁गरीबों	-15564
▁totally	-15565
▁triumph	-15566
▁Officers	-15567
▁लड़कियों	-15568
▁49	-15569
name	-15570
▁Ary	-15571
▁कना	-15572
▁गेह	-15573
aming	-15574
▁1987	-15575
▁Vidy	-15576
▁merg	-15577
▁broke	-15578
▁divor	-15579
▁roots	-15580
▁असंभव	-15581
▁अंतरित	-15582
▁सृष्टि	-15583
प्रदायिक	-15584
▁technique	-15585
रीद	-15586
▁चट	-15587
▁ड़	-15588
म्मा	-15589
▁कंट	-15590
▁चखा	-15591
▁लाई	-15592
igned	-15593
rates	-15594
roleum	-15595
क्रामक	-15596
▁hence	-15597
▁wages	-15598
pection	-15599
त्याशित	-15600
▁advert	-15601
▁poetic	-15602
entation	-15603
▁careful	-15604
▁arrogant	-15605
▁execution	-15606
▁शास्त्रीय	-15607
▁congratulate	-15608
HO	-15609
859	-15610
ema	-15611
खिक	-15612
rase	-15613
तत्व	-15614
▁IIT	-15615
▁Rah	-15616
▁तरल	-15617
▁शेर	-15618
▁हिल	-15619
ifted	-15620
▁Hide	-15621
▁अवकाश	-15622
▁नमूने	-15623
▁फूलों	-15624
▁माहौल	-15625
▁चित्रण	-15626
▁Manipur	-15627
▁concerns	-15628
▁वर्गीकरण	-15629
▁ungrateful	-15630
oso	-15631
स्टे	-15632
▁विट	-15633
ग़ैरह	-15634
▁gross	-15635
▁seats	-15636
▁नाट्य	-15637
▁सौंपा	-15638
▁enthusi	-15639
▁goddess	-15640
▁प्रजाति	-15641
▁historic	-15642
▁प्रतिरोध	-15643
▁computers	-15644
▁yesterday	-15645
फु	-15646
rors	-15647
▁adj	-15648
▁आवृ	-15649
power	-15650
▁scar	-15651
▁किला	-15652
▁मज़े	-15653
▁हफ्त	-15654
orters	-15655
▁catch	-15656
▁diagn	-15657
lasting	-15658
▁Plugin	-15659
▁caught	-15660
▁उपग्रह	-15661
▁निराशा	-15662
▁सर्वथा	-15663
▁सिखाया	-15664
▁uniform	-15665
▁नाबार्ड	-15666
▁पहुंचाने	-15667
▁arguments	-15668
KS	-15669
olt	-15670
िपी	-15671
लंका	-15672
वकों	-15673
ालों	-15674
▁Kir	-15675
▁mob	-15676
▁किल	-15677
▁देन	-15678
▁मसल	-15679
▁मैच	-15680
▁रूह	-15681
essions	-15682
▁mandapa	-15683
▁reserve	-15684
▁sinners	-15685
▁disgrace	-15686
▁civilization	-15687
bl	-15688
oty	-15689
गंध	-15690
ogen	-15691
वानि	-15692
alaya	-15693
निहित	-15694
▁1957	-15695
▁1970	-15696
▁आजकल	-15697
▁दस्त	-15698
▁सौदा	-15699
▁alike	-15700
▁सहभाग	-15701
▁सोचता	-15702
▁खुल्लम	-15703
▁यात्री	-15704
▁सड़कों	-15705
▁declare	-15706
▁सम्बद्ध	-15707
▁Template	-15708
▁स्त्रियाँ	-15709
▁56	-15710
▁Ach	-15711
▁ऊंचे	-15712
▁डालो	-15713
▁bread	-15714
▁dealt	-15715
▁German	-15716
▁models	-15717
▁nutrit	-15718
▁मेमोरी	-15719
▁रंगमंच	-15720
▁Britain	-15721
▁females	-15722
▁flowing	-15723
▁investig	-15724
▁livelihood	-15725
▁tremendous	-15726
▁authentication	-15727
कुफ्	-15728
गोरि	-15729
▁कोर	-15730
▁गेट	-15731
▁सोम	-15732
▁"{0}	-15733
▁Luck	-15734
▁नजात	-15735
▁सवाब	-15736
▁honor	-15737
▁मनाया	-15738
▁मराठी	-15739
irement	-15740
▁Courts	-15741
▁क़्यों	-15742
▁ठहराते	-15743
▁मौजिज़े	-15744
▁Maharaja	-15745
▁equivalent	-15746
▁indigenous	-15747
▁85	-15748
वर्ग	-15749
हमने	-15750
▁Abd	-15751
venth	-15752
प्राय	-15753
लेमान	-15754
▁lady	-15755
▁गोली	-15756
▁ड्रा	-15757
▁wings	-15758
▁निबंध	-15759
▁resort	-15760
▁strict	-15761
▁worthy	-15762
¤	-15763
हल	-15764
mal	-15765
▁SM	-15766
▁बश	-15767
India	-15768
▁1988	-15769
▁किमी	-15770
▁कोने	-15771
▁Order	-15772
▁अभिने	-15773
▁रोज़े	-15774
ographic	-15775
▁clothes	-15776
▁Interest	-15777
▁everybody	-15778
▁proposals	-15779
▁instruction	-15780
▁participants	-15781
राई	-15782
▁पठ	-15783
▁DAY	-15784
▁वसा	-15785
▁Font	-15786
▁quit	-15787
▁फ़ाय	-15788
▁वादी	-15789
▁विधा	-15790
▁blank	-15791
▁deriv	-15792
▁route	-15793
▁पक्का	-15794
▁लौटने	-15795
▁attacks	-15796
▁dignity	-15797
▁discover	-15798
▁requirement	-15799
नाई	-15800
ille	-15801
शिंग	-15802
▁अपर	-15803
अच्छे	-15804
▁alle	-15805
▁आर्य	-15806
▁पुष्प	-15807
त्तियों	-15808
वैज्ञान	-15809
▁किनारा	-15810
▁offspring	-15811
▁techniques	-15812
कोष	-15813
▁125	-15814
▁CRA	-15815
itals	-15816
[...]
